{
    "version": "1.0",
    "truncation": null,
    "padding": null,
    "added_tokens": [
        {
            "id": 0,
            "special": true,
            "content": "</s>",
            "single_word": false,
            "lstrip": false,
            "rstrip": false,
            "normalized": false
        },
        {
            "id": 1,
            "special": true,
            "content": "<unk>",
            "single_word": false,
            "lstrip": false,
            "rstrip": false,
            "normalized": false
        },
        {
            "id": 65000,
            "special": true,
            "content": "<pad>",
            "single_word": false,
            "lstrip": false,
            "rstrip": false,
            "normalized": false
        }
    ],
    "normalizer": {
        "type": "Precompiled",
        "precompiled_charsmap": null
    },
    "pre_tokenizer": {
        "type": "Sequence",
        "pretokenizers": [
            {
                "type": "WhitespaceSplit"
            },
            {
                "type": "Metaspace",
                "replacement": "\u2581",
                "add_prefix_space": true
            }
        ]
    },
    "post_processor": {
        "type": "TemplateProcessing",
        "single": [
            {
                "Sequence": {
                    "id": "A",
                    "type_id": 0
                }
            },
            {
                "SpecialToken": {
                    "id": "</s>",
                    "type_id": 0
                }
            }
        ],
        "pair": [
            {
                "Sequence": {
                    "id": "A",
                    "type_id": 0
                }
            },
            {
                "SpecialToken": {
                    "id": "</s>",
                    "type_id": 0
                }
            },
            {
                "Sequence": {
                    "id": "B",
                    "type_id": 0
                }
            },
            {
                "SpecialToken": {
                    "id": "</s>",
                    "type_id": 0
                }
            }
        ],
        "special_tokens": {
            "</s>": {
                "id": "</s>",
                "ids": [
                    0
                ],
                "tokens": [
                    "</s>"
                ]
            }
        }
    },
    "decoder": {
        "type": "Metaspace",
        "replacement": "\u2581",
        "add_prefix_space": true
    },
    "model": {
        "type": "Unigram",
        "unk_id": 2,
        "vocab": [
            [
                "</s>",
                0.0
            ],
            [
                "<unk>",
                0.0
            ],
            [
                ",",
                -3.055250883102417
            ],
            [
                "\u2581the",
                -2.8430418968200684
            ],
            [
                "\u2581of",
                -3.2895514965057373
            ],
            [
                ".",
                -3.3099491596221924
            ],
            [
                "\u2581and",
                -3.572854518890381
            ],
            [
                "\u2581",
                -3.2506909370422363
            ],
            [
                "\u2581to",
                -3.7319881916046143
            ],
            [
                "\u3002",
                -3.5857343673706055
            ],
            [
                "\u2581in",
                -4.091432094573975
            ],
            [
                "\u7684",
                -4.054945945739746
            ],
            [
                "\u2581a",
                -4.561811923980713
            ],
            [
                "\u3001",
                -4.257608890533447
            ],
            [
                "\u2581for",
                -4.698594093322754
            ],
            [
                "-",
                -4.8278889656066895
            ],
            [
                "\u548c",
                -4.41325569152832
            ],
            [
                ")",
                -4.984205722808838
            ],
            [
                "\u2581on",
                -4.800567150115967
            ],
            [
                "\u2581that",
                -4.795848369598389
            ],
            [
                "\u2581(",
                -5.095250129699707
            ],
            [
                "'",
                -4.795566082000732
            ],
            [
                "s",
                -4.772305011749268
            ],
            [
                "?",
                -5.421045780181885
            ],
            [
                "\u2581The",
                -5.11887788772583
            ],
            [
                ";",
                -5.538857936859131
            ],
            [
                "\u2581I",
                -5.120887756347656
            ],
            [
                "\u2581with",
                -5.2893853187561035
            ],
            [
                "\u2581-",
                -5.678422927856445
            ],
            [
                "\u2581by",
                -5.326668739318848
            ],
            [
                "\u2581is",
                -5.302030086517334
            ],
            [
                "\u5e74",
                -5.017228126525879
            ],
            [
                "\u2581be",
                -5.411655902862549
            ],
            [
                "\u2581as",
                -5.453512191772461
            ],
            [
                "(",
                -5.100958347320557
            ],
            [
                ":",
                -5.843443393707275
            ],
            [
                "\u5728",
                -5.124697685241699
            ],
            [
                "\u2581you",
                -5.420007228851318
            ],
            [
                "\u2581\"",
                -5.958220481872559
            ],
            [
                "\u2581it",
                -5.668237686157227
            ],
            [
                "/",
                -6.098614692687988
            ],
            [
                "\u6708",
                -5.452178955078125
            ],
            [
                "\u2581was",
                -5.761221885681152
            ],
            [
                "\u2581its",
                -5.8062872886657715
            ],
            [
                "\u2581are",
                -5.802602767944336
            ],
            [
                "\u2581United",
                -5.8709211349487305
            ],
            [
                "\u2581at",
                -5.885685920715332
            ],
            [
                "\u300b",
                -5.596428394317627
            ],
            [
                "!",
                -6.173346042633057
            ],
            [
                "\u2581from",
                -5.9608306884765625
            ],
            [
                "\u2581or",
                -5.984510898590088
            ],
            [
                "\u300a",
                -5.637899398803711
            ],
            [
                "\u2581Nations",
                -6.02394962310791
            ],
            [
                "\u2581have",
                -5.9845404624938965
            ],
            [
                "\u2581not",
                -6.006681442260742
            ],
            [
                "\u4e86",
                -5.725643634796143
            ],
            [
                "\u2581this",
                -6.0828399658203125
            ],
            [
                "\u2581an",
                -6.153202056884766
            ],
            [
                "\u2581all",
                -6.1658501625061035
            ],
            [
                "t",
                -6.073720932006836
            ],
            [
                "\u2581which",
                -6.200110912322998
            ],
            [
                "\u2581their",
                -6.214515209197998
            ],
            [
                "\u2581Committee",
                -6.254988670349121
            ],
            [
                "\u5bf9",
                -5.839659690856934
            ],
            [
                "\u2581has",
                -6.302142143249512
            ],
            [
                "\u4e0e",
                -5.971817970275879
            ],
            [
                "\u2581In",
                -6.3306169509887695
            ],
            [
                "\u2581States",
                -6.348271369934082
            ],
            [
                "...",
                -6.741438388824463
            ],
            [
                "\u662f",
                -5.8955302238464355
            ],
            [
                "\u6216",
                -6.030806064605713
            ],
            [
                "\u2581international",
                -6.43327522277832
            ],
            [
                "\u2581been",
                -6.424994468688965
            ],
            [
                "\u2581will",
                -6.409214019775391
            ],
            [
                "\u4e3a",
                -6.053939342498779
            ],
            [
                "\u65e5",
                -6.117800712585449
            ],
            [
                "\u7b2c",
                -6.063901901245117
            ],
            [
                "\u2581had",
                -6.475997447967529
            ],
            [
                "\u2581A",
                -6.626140117645264
            ],
            [
                "\u2581also",
                -6.514293670654297
            ],
            [
                "\u4e2d",
                -6.169991493225098
            ],
            [
                "A",
                -6.67070198059082
            ],
            [
                "\u2581It",
                -6.465089797973633
            ],
            [
                "\u2581'",
                -6.574206829071045
            ],
            [
                "\u2581were",
                -6.529925346374512
            ],
            [
                "\u2581other",
                -6.537903785705566
            ],
            [
                "a",
                -7.092143535614014
            ],
            [
                "\u4ee5\u53ca",
                -6.2231621742248535
            ],
            [
                "\u2581should",
                -6.588451385498047
            ],
            [
                "\u2581Council",
                -6.616766929626465
            ],
            [
                "\u2581development",
                -6.6292595863342285
            ],
            [
                "\u5e76",
                -6.281846046447754
            ],
            [
                "\u2581would",
                -6.639683723449707
            ],
            [
                "\u2581rights",
                -6.675431728363037
            ],
            [
                "\u2581countries",
                -6.673282146453857
            ],
            [
                "\u2581s",
                -6.754964351654053
            ],
            [
                "\u5c06",
                -6.313647747039795
            ],
            [
                "m",
                -6.549740314483643
            ],
            [
                "1",
                -6.345709323883057
            ],
            [
                "\u2581report",
                -6.718066215515137
            ],
            [
                "\u2581You",
                -6.5611162185668945
            ],
            [
                "\u5305\u62ec",
                -6.410895824432373
            ],
            [
                "ing",
                -6.7428975105285645
            ],
            [
                "\u2581\u6211",
                -6.469240665435791
            ],
            [
                "d",
                -6.992192268371582
            ],
            [
                "\u2581me",
                -6.639273643493652
            ],
            [
                "\u2581\u5728",
                -6.575309753417969
            ],
            [
                "\u2581we",
                -6.730982303619385
            ],
            [
                "\u2581resolution",
                -6.821502685546875
            ],
            [
                "b",
                -7.252325534820557
            ],
            [
                "\u2581including",
                -6.837592601776123
            ],
            [
                "\u2581under",
                -6.849107265472412
            ],
            [
                "\u95ee\u9898",
                -6.501269817352295
            ],
            [
                "\u2581women",
                -6.8620285987854
            ],
            [
                "\u4ee5",
                -6.518392086029053
            ],
            [
                "\u2581such",
                -6.868948936462402
            ],
            [
                "3",
                -6.594814777374268
            ],
            [
                "\u2581human",
                -6.887802600860596
            ],
            [
                "\u2581work",
                -6.855674743652344
            ],
            [
                "\u2581General",
                -6.901546955108643
            ],
            [
                "\u2581Assembly",
                -6.904928684234619
            ],
            [
                "\u6211",
                -6.487020015716553
            ],
            [
                "\u2581can",
                -6.820706367492676
            ],
            [
                "\u6709",
                -6.524640083312988
            ],
            [
                "\u2581support",
                -6.935491561889648
            ],
            [
                "\u2581information",
                -6.965698719024658
            ],
            [
                "2",
                -6.637168884277344
            ],
            [
                "\u2581national",
                -6.96262264251709
            ],
            [
                "\u4eba",
                -6.577000617980957
            ],
            [
                "re",
                -6.822947025299072
            ],
            [
                "\u2581out",
                -6.9110026359558105
            ],
            [
                "\u2581State",
                -6.9793314933776855
            ],
            [
                "\u2581\u4f60",
                -6.659734725952148
            ],
            [
                "6",
                -6.655554294586182
            ],
            [
                "\u2581session",
                -6.9932708740234375
            ],
            [
                "\u2581they",
                -6.961141586303711
            ],
            [
                "General",
                -7.009588241577148
            ],
            [
                "\u5173\u4e8e",
                -6.625558853149414
            ],
            [
                "4",
                -6.718374252319336
            ],
            [
                "\u2581one",
                -6.97011661529541
            ],
            [
                "\u2581We",
                -6.967237949371338
            ],
            [
                "\u2581Convention",
                -7.046658992767334
            ],
            [
                "\u65f6",
                -6.725594997406006
            ],
            [
                "\u2581implementation",
                -7.063737869262695
            ],
            [
                "\u2581Secretary",
                -7.069155693054199
            ],
            [
                "\u5c31",
                -6.664466857910156
            ],
            [
                "\u4f60",
                -6.645200729370117
            ],
            [
                "\u2581do",
                -6.925314903259277
            ],
            [
                "c",
                -7.580902576446533
            ],
            [
                "\u5411",
                -6.751401901245117
            ],
            [
                "\u4e0a",
                -6.764588832855225
            ],
            [
                "\u2581right",
                -6.996429920196533
            ],
            [
                "\u2581more",
                -7.071864604949951
            ],
            [
                "\u5176",
                -6.7073259353637695
            ],
            [
                "\u2581made",
                -7.095643997192383
            ],
            [
                "\u4e0d",
                -6.719370365142822
            ],
            [
                "\u56fd\u5bb6",
                -6.721237659454346
            ],
            [
                "12",
                -6.796107769012451
            ],
            [
                "\u2581my",
                -6.973377704620361
            ],
            [
                "7",
                -6.785161018371582
            ],
            [
                "\u63d0\u4f9b",
                -6.776630878448486
            ],
            [
                "\u2581there",
                -7.131556510925293
            ],
            [
                "\u2581Government",
                -7.129116535186768
            ],
            [
                "\u2581Commission",
                -7.135850429534912
            ],
            [
                "\u2581into",
                -7.124322891235352
            ],
            [
                "\u2581those",
                -7.126081943511963
            ],
            [
                "\u800c",
                -6.780665397644043
            ],
            [
                "\u2581International",
                -7.144880294799805
            ],
            [
                "\u2581your",
                -6.988577842712402
            ],
            [
                "\u2581he",
                -7.064953327178955
            ],
            [
                "5",
                -6.778764247894287
            ],
            [
                "\u2581activities",
                -7.1732892990112305
            ],
            [
                "\u2581against",
                -7.164906978607178
            ],
            [
                "C",
                -7.466009616851807
            ],
            [
                "\u2581his",
                -7.132270336151123
            ],
            [
                "\u2581well",
                -7.180466175079346
            ],
            [
                "\u8fdb\u884c",
                -6.852390766143799
            ],
            [
                "e",
                -7.565009117126465
            ],
            [
                "\u516c\u7ea6",
                -6.908163070678711
            ],
            [
                "\u2581no",
                -7.136172771453857
            ],
            [
                "\u2581through",
                -7.209611415863037
            ],
            [
                "\u2581about",
                -7.143578052520752
            ],
            [
                "\u4ed6",
                -6.829709053039551
            ],
            [
                "\u2581but",
                -7.175455093383789
            ],
            [
                "),",
                -7.4318084716796875
            ],
            [
                "10",
                -6.929882049560547
            ],
            [
                "\u59d4\u5458\u4f1a",
                -6.8455634117126465
            ],
            [
                "\u2581up",
                -7.150051593780518
            ],
            [
                "\u53ca",
                -6.957876682281494
            ],
            [
                "\u2581any",
                -7.228691101074219
            ],
            [
                "\u2581law",
                -7.246993064880371
            ],
            [
                "\u2581between",
                -7.253876209259033
            ],
            [
                "\u2581so",
                -7.186402320861816
            ],
            [
                "\u5de5\u4f5c",
                -6.895153045654297
            ],
            [
                ")\u3002",
                -7.1353678703308105
            ],
            [
                "\u2581meeting",
                -7.274647235870361
            ],
            [
                "\u2581\u201c",
                -7.4722371101379395
            ],
            [
                "9",
                -6.922267913818359
            ],
            [
                "\u65b9\u9762",
                -6.941769599914551
            ],
            [
                "\u2581them",
                -7.354774475097656
            ],
            [
                "\u2581who",
                -7.247998237609863
            ],
            [
                "\u2581What",
                -7.035438537597656
            ],
            [
                "\u2581know",
                -7.111241817474365
            ],
            [
                "\u2581per",
                -7.320127010345459
            ],
            [
                "\u2581need",
                -7.273101329803467
            ],
            [
                "\u2581measures",
                -7.328941345214844
            ],
            [
                "\u2581This",
                -7.2828755378723145
            ],
            [
                "\u901a\u8fc7",
                -6.9336323738098145
            ],
            [
                "\u2581system",
                -7.334463596343994
            ],
            [
                "\u2581what",
                -7.188647747039795
            ],
            [
                "\u2581country",
                -7.335928916931152
            ],
            [
                "\u2581new",
                -7.323686122894287
            ],
            [
                "\u2581Security",
                -7.342565059661865
            ],
            [
                "\u2581security",
                -7.346317768096924
            ],
            [
                "\u2581organizations",
                -7.362361431121826
            ],
            [
                "\u201d",
                -7.448582172393799
            ],
            [
                "\u2581time",
                -7.3188910484313965
            ],
            [
                "\u2581Mr",
                -7.32131814956665
            ],
            [
                "\u2581No",
                -7.241852760314941
            ],
            [
                "\u2581Conference",
                -7.365822792053223
            ],
            [
                "\u6709\u5173",
                -6.981527805328369
            ],
            [
                "\u25811",
                -7.411030292510986
            ],
            [
                "\u00b7",
                -7.028580665588379
            ],
            [
                "\u2581Republic",
                -7.291143894195557
            ],
            [
                "\u2581cooperation",
                -7.385494709014893
            ],
            [
                "\u2581efforts",
                -7.405753135681152
            ],
            [
                "\u2581these",
                -7.38685941696167
            ],
            [
                "\u2581draft",
                -7.40897274017334
            ],
            [
                "\u8054\u5408\u56fd",
                -7.003014087677002
            ],
            [
                "S",
                -7.742591381072998
            ],
            [
                "\u6211\u4eec",
                -7.011364936828613
            ],
            [
                "\u2581could",
                -7.378568172454834
            ],
            [
                "L",
                -7.727804183959961
            ],
            [
                "\u4ece",
                -7.045724391937256
            ],
            [
                "\u6761",
                -7.086505889892578
            ],
            [
                "\u2581people",
                -7.371321678161621
            ],
            [
                "\u2581children",
                -7.412393569946289
            ],
            [
                "\u2581take",
                -7.376903533935547
            ],
            [
                "\u2581like",
                -7.330790996551514
            ],
            [
                "\u2581some",
                -7.397319316864014
            ],
            [
                "\u2581Development",
                -7.437280654907227
            ],
            [
                "\u5730",
                -7.1492838859558105
            ],
            [
                "\u4e5f",
                -7.077450275421143
            ],
            [
                ").",
                -7.689610004425049
            ],
            [
                "\u62a5\u544a",
                -7.065124988555908
            ],
            [
                "\u2581if",
                -7.371241092681885
            ],
            [
                "\u65b9\u6848",
                -7.0877532958984375
            ],
            [
                "\u2581resources",
                -7.457533836364746
            ],
            [
                "\u2581programme",
                -7.446869850158691
            ],
            [
                "\u2581He",
                -7.339741230010986
            ],
            [
                "ed",
                -7.443142890930176
            ],
            [
                "8",
                -7.0862627029418945
            ],
            [
                "\u2581may",
                -7.448773384094238
            ],
            [
                "\u2581Rights",
                -7.469029903411865
            ],
            [
                "11",
                -7.16981315612793
            ],
            [
                "\u4e2a",
                -7.129853248596191
            ],
            [
                "\u2581non",
                -7.483733177185059
            ],
            [
                "\u9700\u8981",
                -7.133617877960205
            ],
            [
                "\u4e8e",
                -7.141193866729736
            ],
            [
                "\u2581regional",
                -7.496487617492676
            ],
            [
                "\u6bb5",
                -7.160168647766113
            ],
            [
                "\u53f7\u51b3\u8bae",
                -7.144454479217529
            ],
            [
                "\u2581two",
                -7.467044353485107
            ],
            [
                "\u6240",
                -7.1921515464782715
            ],
            [
                "\u2581--",
                -7.574594974517822
            ],
            [
                "\u56fd\u9645",
                -7.17443323135376
            ],
            [
                "\u88ab",
                -7.1806440353393555
            ],
            [
                "\u2581number",
                -7.504824161529541
            ],
            [
                "\u5230",
                -7.132069110870361
            ],
            [
                "\u2581cent",
                -7.520283222198486
            ],
            [
                "\u5e94",
                -7.099766731262207
            ],
            [
                "\u7531",
                -7.179437160491943
            ],
            [
                "\u6765",
                -7.165785789489746
            ],
            [
                "\u2581only",
                -7.49363374710083
            ],
            [
                "\u2581Group",
                -7.5228190422058105
            ],
            [
                "\u2581assistance",
                -7.530771255493164
            ],
            [
                "\u5148\u751f",
                -7.22310209274292
            ],
            [
                "\u653f\u5e9c",
                -7.108165264129639
            ],
            [
                "\u2581order",
                -7.521108150482178
            ],
            [
                "\u2581ensure",
                -7.529569625854492
            ],
            [
                "\u2581issues",
                -7.5470380783081055
            ],
            [
                "\u2581provide",
                -7.534387588500977
            ],
            [
                "\u6267\u884c",
                -7.151699066162109
            ],
            [
                "\u2581use",
                -7.529213905334473
            ],
            [
                "\u2581paragraph",
                -7.541381359100342
            ],
            [
                "\u2581financial",
                -7.56013298034668
            ],
            [
                "\u2581our",
                -7.509483337402344
            ],
            [
                "\u2581process",
                -7.557826995849609
            ],
            [
                "\u8fd9\u4e9b",
                -7.155930995941162
            ],
            [
                "\u2581economic",
                -7.575464725494385
            ],
            [
                "\u6d3b\u52a8",
                -7.18491268157959
            ],
            [
                "\u90fd",
                -7.231922626495361
            ],
            [
                "\u2581over",
                -7.539303302764893
            ],
            [
                "\u2581don",
                -7.392021656036377
            ],
            [
                "ll",
                -7.44644021987915
            ],
            [
                "\u2581Human",
                -7.589372158050537
            ],
            [
                "\u2581than",
                -7.558025360107422
            ],
            [
                "\u2581further",
                -7.590262413024902
            ],
            [
                "\u2581members",
                -7.606093406677246
            ],
            [
                "\u2581her",
                -7.47193717956543
            ],
            [
                "\u8bf4",
                -7.237899303436279
            ],
            [
                "\u2581social",
                -7.601758003234863
            ],
            [
                "\u2581just",
                -7.465009689331055
            ],
            [
                "\u2581article",
                -7.591999053955078
            ],
            [
                "\u6839\u636e",
                -7.226304054260254
            ],
            [
                "\u2581services",
                -7.6110758781433105
            ],
            [
                "\u2581Office",
                -7.60418701171875
            ],
            [
                "\u2581must",
                -7.585986614227295
            ],
            [
                "\u2581And",
                -7.457826614379883
            ],
            [
                "\u4e00\u4e2a",
                -7.165032386779785
            ],
            [
                "\u2581Special",
                -7.622905731201172
            ],
            [
                "\u6ca1\u6709",
                -7.219747543334961
            ],
            [
                "\u2581particular",
                -7.634378910064697
            ],
            [
                "\u2581here",
                -7.500734329223633
            ],
            [
                "\u652f\u6301",
                -7.264767646789551
            ],
            [
                "\u2581party",
                -7.644113540649414
            ],
            [
                "\u8981\u6c42",
                -7.281032085418701
            ],
            [
                "\u2581developing",
                -7.652710437774658
            ],
            [
                "\u2581\u4ed6",
                -7.36067533493042
            ],
            [
                "\u2581provided",
                -7.658236980438232
            ],
            [
                "\u2581relevant",
                -7.6503143310546875
            ],
            [
                "\u2581shall",
                -7.629950046539307
            ],
            [
                "\u201c",
                -7.268563270568848
            ],
            [
                "\u2581within",
                -7.660717010498047
            ],
            [
                "\u25812.",
                -7.817026138305664
            ],
            [
                "\u2581him",
                -7.527605056762695
            ],
            [
                "\u53ef",
                -7.283832550048828
            ],
            [
                "\u4ed6\u4eec",
                -7.275408744812012
            ],
            [
                "\u2581years",
                -7.652428150177002
            ],
            [
                "\u2581programmes",
                -7.684703826904297
            ],
            [
                "\u4f46",
                -7.295936107635498
            ],
            [
                "\u2581That",
                -7.533242225646973
            ],
            [
                "\u2581decision",
                -7.669548034667969
            ],
            [
                "\u4e00",
                -7.316120147705078
            ],
            [
                "\u25811.",
                -7.841270923614502
            ],
            [
                "\u2581\u6211\u4eec",
                -7.388767242431641
            ],
            [
                "\u4f1a\u8bae",
                -7.280335903167725
            ],
            [
                "\u2581C",
                -8.02302074432373
            ],
            [
                "\u5417",
                -7.360721111297607
            ],
            [
                "E",
                -7.964540004730225
            ],
            [
                "\u2581first",
                -7.6728363037109375
            ],
            [
                "\u2581public",
                -7.703726291656494
            ],
            [
                "\u8981",
                -7.321990013122559
            ],
            [
                "\u2581management",
                -7.706233978271484
            ],
            [
                "\u2581December",
                -7.678493976593018
            ],
            [
                "\u2581[",
                -8.072742462158203
            ],
            [
                "\u2581when",
                -7.666834354400635
            ],
            [
                "\u2581areas",
                -7.73846960067749
            ],
            [
                "\u6cd5",
                -7.426253795623779
            ],
            [
                "\u5df2",
                -7.351663589477539
            ],
            [
                "\u2581adopted",
                -7.741241455078125
            ],
            [
                "\u2581period",
                -7.72438907623291
            ],
            [
                "\u2581make",
                -7.681632995605469
            ],
            [
                "\u2581staff",
                -7.743833541870117
            ],
            [
                "\u2581health",
                -7.747125625610352
            ],
            [
                "\u6240\u6709",
                -7.313968658447266
            ],
            [
                "\u2581now",
                -7.670475482940674
            ],
            [
                ");",
                -8.074466705322266
            ],
            [
                "\u2581held",
                -7.751171588897705
            ],
            [
                "\u4e0b",
                -7.419119358062744
            ],
            [
                "\u4ee3\u8868",
                -7.377101421356201
            ],
            [
                "\u2581where",
                -7.705219268798828
            ],
            [
                "\u2581during",
                -7.758029460906982
            ],
            [
                "\u2581level",
                -7.751954078674316
            ],
            [
                "\u6027",
                -7.447281837463379
            ],
            [
                "\u8fd8",
                -7.334161758422852
            ],
            [
                "30",
                -7.541351318359375
            ],
            [
                "\u7ee7\u7eed",
                -7.429599285125732
            ],
            [
                "\u2581being",
                -7.756261825561523
            ],
            [
                "\u8005",
                -7.4400248527526855
            ],
            [
                "\u2581persons",
                -7.783838272094727
            ],
            [
                "\u53d1\u5c55",
                -7.385817527770996
            ],
            [
                "\u2581President",
                -7.773297309875488
            ],
            [
                "i",
                -8.17499828338623
            ],
            [
                "\u2581go",
                -7.6028313636779785
            ],
            [
                "\u4f1a",
                -7.400862216949463
            ],
            [
                "\u2581review",
                -7.7913336753845215
            ],
            [
                "\u2581regard",
                -7.792353630065918
            ],
            [
                "\u540e",
                -7.466006755828857
            ],
            [
                "\u2581B",
                -8.344609260559082
            ],
            [
                "\u5987\u5973",
                -7.462040424346924
            ],
            [
                "\u7ec4\u7ec7",
                -7.4699530601501465
            ],
            [
                "\u2581protection",
                -7.810634136199951
            ],
            [
                "\u2581education",
                -7.798050880432129
            ],
            [
                "\u5b83",
                -7.4190354347229
            ],
            [
                "\u53ef\u4ee5",
                -7.409599304199219
            ],
            [
                "]",
                -8.216137886047363
            ],
            [
                "\u9879\u76ee",
                -7.4037604331970215
            ],
            [
                "\u5efa\u8bae",
                -7.376222610473633
            ],
            [
                "\u2581action",
                -7.811699390411377
            ],
            [
                "\u2581parties",
                -7.8214640617370605
            ],
            [
                "\u8be5",
                -7.387935638427734
            ],
            [
                "\u2581political",
                -7.813948154449463
            ],
            [
                "\u2581At",
                -7.813709259033203
            ],
            [
                "\u2581legal",
                -7.8215012550354
            ],
            [
                "\u4f5c\u4e3a",
                -7.472722053527832
            ],
            [
                "\u2581Programme",
                -7.810214519500732
            ],
            [
                "\u5df2\u7ecf",
                -7.482755184173584
            ],
            [
                "\u2581situation",
                -7.8262715339660645
            ],
            [
                "\u4f7f",
                -7.473221778869629
            ],
            [
                "\u2581get",
                -7.669451713562012
            ],
            [
                "\u5408\u4f5c",
                -7.477838516235352
            ],
            [
                "\u2581continue",
                -7.825891494750977
            ],
            [
                "\u2581As",
                -7.854648113250732
            ],
            [
                "\u2581taken",
                -7.836264610290527
            ],
            [
                "\u2581peace",
                -7.8420023918151855
            ],
            [
                "\u2581community",
                -7.846211910247803
            ],
            [
                "\u2581Organization",
                -7.828547477722168
            ],
            [
                "\u7b49",
                -7.494132041931152
            ],
            [
                "\u2581capacity",
                -7.850708961486816
            ],
            [
                "\u25813.",
                -8.027913093566895
            ],
            [
                "\u2581accordance",
                -7.857865810394287
            ],
            [
                "\u2581said",
                -7.779463291168213
            ],
            [
                "\u25812",
                -7.902292251586914
            ],
            [
                "\u2581following",
                -7.85710334777832
            ],
            [
                "\u2581training",
                -7.8626580238342285
            ],
            [
                "\u2581policy",
                -7.865625381469727
            ],
            [
                "\u2581agenda",
                -7.857755184173584
            ],
            [
                "\u7684\u62a5\u544a",
                -7.5895819664001465
            ],
            [
                "ve",
                -7.787151336669922
            ],
            [
                "\u2581respect",
                -7.862514495849609
            ],
            [
                "\u4f7f\u7528",
                -7.518130779266357
            ],
            [
                "\u2581recommendations",
                -7.884375095367432
            ],
            [
                "\u2581part",
                -7.859227657318115
            ],
            [
                "\u2581special",
                -7.889521598815918
            ],
            [
                "\u2581Member",
                -7.884109973907471
            ],
            [
                "\u2581world",
                -7.872674942016602
            ],
            [
                "\u5979",
                -7.496398448944092
            ],
            [
                "\u2581did",
                -7.787712097167969
            ],
            [
                "\u2581effective",
                -7.900230884552002
            ],
            [
                "\u5fc5\u987b",
                -7.497272968292236
            ],
            [
                "\u2581among",
                -7.8917155265808105
            ],
            [
                "\u2581important",
                -7.89912223815918
            ],
            [
                "\u60c5\u51b5",
                -7.514803886413574
            ],
            [
                "20",
                -7.643799304962158
            ],
            [
                "\u7f8e\u5143",
                -7.5528388023376465
            ],
            [
                "\u2581before",
                -7.871379852294922
            ],
            [
                "\u4fc3\u8fdb",
                -7.503368854522705
            ],
            [
                "\u673a\u6784",
                -7.538643836975098
            ],
            [
                "\u2581access",
                -7.913584232330322
            ],
            [
                "\u2581\u7b2c",
                -7.771833419799805
            ],
            [
                "15",
                -7.682647705078125
            ],
            [
                "\u884c\u52a8",
                -7.56798791885376
            ],
            [
                "\u2581both",
                -7.915032386779785
            ],
            [
                "\u2581most",
                -7.911574840545654
            ],
            [
                "\u2581reports",
                -7.960575580596924
            ],
            [
                "\u2581They",
                -7.856452941894531
            ],
            [
                "\u2581established",
                -7.941163063049316
            ],
            [
                "\u8fd9\u4e00",
                -7.556419372558594
            ],
            [
                "\u540d",
                -7.594732284545898
            ],
            [
                "\u2581S",
                -8.175851821899414
            ],
            [
                "\u2581Africa",
                -7.915029525756836
            ],
            [
                "\u8ba4\u4e3a",
                -7.6025567054748535
            ],
            [
                "\u53ef\u80fd",
                -7.577751636505127
            ],
            [
                "\u5904\u7406",
                -7.638184547424316
            ],
            [
                "\u2581role",
                -7.949270725250244
            ],
            [
                "\u2581To",
                -7.9424214363098145
            ],
            [
                "\u65e5\u7b2c",
                -7.61763334274292
            ],
            [
                "\u2581progress",
                -7.970252990722656
            ],
            [
                "\u2581related",
                -7.97641134262085
            ],
            [
                "\u53c2\u4e0e",
                -7.595595359802246
            ],
            [
                "\u89c4\u5b9a",
                -7.6127448081970215
            ],
            [
                "\u2581Parties",
                -7.974713325500488
            ],
            [
                "\u4fdd\u62a4",
                -7.633840084075928
            ],
            [
                "\u7ecf\u6d4e",
                -7.612408638000488
            ],
            [
                "\u2581year",
                -7.953321933746338
            ],
            [
                "y",
                -8.245865821838379
            ],
            [
                "\u2581working",
                -7.9802165031433105
            ],
            [
                "\u2581same",
                -7.9653167724609375
            ],
            [
                "\u2581many",
                -7.9692158699035645
            ],
            [
                "\u2581gender",
                -7.993173122406006
            ],
            [
                "\u2581E",
                -8.264815330505371
            ],
            [
                "\u2581good",
                -7.865207672119141
            ],
            [
                "\u258110",
                -7.927762508392334
            ],
            [
                "\u2581There",
                -7.9290947914123535
            ],
            [
                "\u5185",
                -7.6645660400390625
            ],
            [
                "\u63aa\u65bd",
                -7.641516208648682
            ],
            [
                "\u2581June",
                -7.948808670043945
            ],
            [
                "\"",
                -7.867127895355225
            ],
            [
                "\u2581violence",
                -7.9998459815979
            ],
            [
                "ly",
                -7.982578277587891
            ],
            [
                "\u2581way",
                -7.911886215209961
            ],
            [
                "\u2581view",
                -7.998495101928711
            ],
            [
                "\u2581World",
                -8.007257461547852
            ],
            [
                "\u2581present",
                -7.999001502990723
            ],
            [
                "\u7ba1\u7406",
                -7.6312737464904785
            ],
            [
                "\u540c",
                -7.647703170776367
            ],
            [
                "\u25814.",
                -8.158681869506836
            ],
            [
                "\u2581see",
                -7.877876281738281
            ],
            [
                "\u2581want",
                -7.83242130279541
            ],
            [
                "\u25813",
                -7.886026859283447
            ],
            [
                "\u5efa\u7acb",
                -7.659189224243164
            ],
            [
                "\u5b9e\u65bd",
                -7.651064395904541
            ],
            [
                "\u2581global",
                -8.027815818786621
            ],
            [
                "\u2581she",
                -7.881340980529785
            ],
            [
                "\u786e\u4fdd",
                -7.636119842529297
            ],
            [
                "th",
                -8.051176071166992
            ],
            [
                "\u6cd5\u5f8b",
                -7.643991947174072
            ],
            [
                "\u2581Economic",
                -8.041359901428223
            ],
            [
                "\u5427",
                -7.68885612487793
            ],
            [
                "\u2581But",
                -7.885958194732666
            ],
            [
                "er",
                -8.213529586791992
            ],
            [
                "\u5ba1\u67e5",
                -7.649532318115234
            ],
            [
                "\u2581appropriate",
                -8.031085014343262
            ],
            [
                "\u2581technical",
                -8.027917861938477
            ],
            [
                "\u653f\u7b56",
                -7.655879497528076
            ],
            [
                "\u83b7\u5f97",
                -7.693394184112549
            ],
            [
                "\u53f7",
                -7.658161163330078
            ],
            [
                "\u7279\u522b\u662f",
                -7.691847801208496
            ],
            [
                "\u2581nuclear",
                -8.038753509521484
            ],
            [
                "\u25815",
                -8.104864120483398
            ],
            [
                "\u670d\u52a1",
                -7.68772554397583
            ],
            [
                "\u2581us",
                -7.920769691467285
            ],
            [
                "\u2581three",
                -8.018131256103516
            ],
            [
                "\u628a",
                -7.670310974121094
            ],
            [
                "\u2581Social",
                -8.049947738647461
            ],
            [
                "\u5927\u4f1a",
                -7.669275283813477
            ],
            [
                "\u5373",
                -7.7252020835876465
            ],
            [
                "\u2581budget",
                -8.041319847106934
            ],
            [
                "\u2581item",
                -8.03090763092041
            ],
            [
                "\u2581full",
                -8.041622161865234
            ],
            [
                "\u8fd9",
                -7.63646936416626
            ],
            [
                "\u2581P",
                -8.24344539642334
            ],
            [
                "\u2581set",
                -8.0324125289917
            ],
            [
                "\u2581Board",
                -8.049785614013672
            ],
            [
                "\u2581necessary",
                -8.060851097106934
            ],
            [
                "\u51b3\u5b9a",
                -7.6459221839904785
            ],
            [
                "\u2581basis",
                -8.065811157226562
            ],
            [
                "\u2581African",
                -8.050435066223145
            ],
            [
                "\u8fd9\u79cd",
                -7.703940391540527
            ],
            [
                "\u7684\u4eba",
                -7.827062606811523
            ],
            [
                "\u2581how",
                -7.980958461761475
            ],
            [
                "18",
                -7.84055757522583
            ],
            [
                "\u80fd",
                -7.702582836151123
            ],
            [
                "\u2581\u56e0\u6b64",
                -7.776627540588379
            ],
            [
                "\u52a0\u5f3a",
                -7.6677985191345215
            ],
            [
                "\u2581institutions",
                -8.083666801452637
            ],
            [
                "\u2581without",
                -8.071502685546875
            ],
            [
                "\u2581\u300a",
                -8.121071815490723
            ],
            [
                "\u2581case",
                -8.059883117675781
            ],
            [
                "\u2581possible",
                -8.083813667297363
            ],
            [
                "\u2581place",
                -8.041112899780273
            ],
            [
                "\u81f3",
                -7.7694292068481445
            ],
            [
                "):",
                -8.41392993927002
            ],
            [
                "\u4efb\u4f55",
                -7.719465732574463
            ],
            [
                "\u65e5\u81f3",
                -7.748085021972656
            ],
            [
                "\u6b3e",
                -7.757056713104248
            ],
            [
                "\u2581million",
                -8.076067924499512
            ],
            [
                "\u8ba1\u5212",
                -7.73981237411499
            ],
            [
                "\u793e\u4f1a",
                -7.7240824699401855
            ],
            [
                "\u2581\u5173\u4e8e",
                -7.88162088394165
            ],
            [
                "\u5927",
                -7.7360968589782715
            ],
            [
                "\u2581National",
                -8.098738670349121
            ],
            [
                "\u91c7\u53d6",
                -7.777627944946289
            ],
            [
                "\u589e\u52a0",
                -7.751161098480225
            ],
            [
                "\u2581groups",
                -8.122830390930176
            ],
            [
                "P",
                -8.122725486755371
            ],
            [
                "\u2581after",
                -8.070345878601074
            ],
            [
                "\u7684\u5de5\u4f5c",
                -7.849912166595459
            ],
            [
                "\u2581think",
                -7.964408874511719
            ],
            [
                "\u2581provisions",
                -8.126304626464844
            ],
            [
                "\u2581got",
                -7.956347942352295
            ],
            [
                "\u2581All",
                -8.000717163085938
            ],
            [
                "\u2581meetings",
                -8.1416597366333
            ],
            [
                "\u52aa\u529b",
                -7.742806911468506
            ],
            [
                "\u63d0\u51fa",
                -7.721202850341797
            ],
            [
                "\u2581cases",
                -8.132969856262207
            ],
            [
                "\u2581since",
                -8.110760688781738
            ],
            [
                "\u513f\u7ae5",
                -7.758700847625732
            ],
            [
                "\u2581policies",
                -8.134392738342285
            ],
            [
                "\u2581July",
                -8.082952499389648
            ],
            [
                "g",
                -8.561295509338379
            ],
            [
                "\u91cc",
                -7.8347344398498535
            ],
            [
                "\u53ca\u5176",
                -7.834366321563721
            ],
            [
                "\u2581consideration",
                -8.137274742126465
            ],
            [
                "\u2581general",
                -8.141196250915527
            ],
            [
                "\u533a\u57df",
                -7.767466068267822
            ],
            [
                "\u80fd\u591f",
                -7.809623718261719
            ],
            [
                "\u2581Working",
                -8.15608024597168
            ],
            [
                "\u2581needs",
                -8.16048812866211
            ],
            [
                "\u25815.",
                -8.296446800231934
            ],
            [
                "\u5f00\u5c55",
                -7.803153038024902
            ],
            [
                "\u2581\u6b64\u5916",
                -7.821348190307617
            ],
            [
                "\u2581On",
                -8.140939712524414
            ],
            [
                "\u2581very",
                -8.0966157913208
            ],
            [
                "\u2581upon",
                -8.151535034179688
            ],
            [
                "\u2581include",
                -8.160002708435059
            ],
            [
                "\u2581end",
                -8.158345222473145
            ],
            [
                "Add",
                -8.401042938232422
            ],
            [
                "f",
                -8.634245872497559
            ],
            [
                "\u2581data",
                -8.179335594177246
            ],
            [
                "\u2581For",
                -8.134071350097656
            ],
            [
                "17",
                -7.967077732086182
            ],
            [
                "\u89e3\u51b3",
                -7.842071533203125
            ],
            [
                "\u2581concerned",
                -8.191814422607422
            ],
            [
                "\u65b0\u7684",
                -7.969482421875
            ],
            [
                "\u5b9e\u73b0",
                -7.839349269866943
            ],
            [
                "\u6218\u7565",
                -7.838621616363525
            ],
            [
                "\u2581trade",
                -8.188843727111816
            ],
            [
                "\u2581while",
                -8.170100212097168
            ],
            [
                "\u2581Court",
                -8.182551383972168
            ],
            [
                "\u2581local",
                -8.189468383789062
            ],
            [
                "\u2581issue",
                -8.188849449157715
            ],
            [
                "\u2581each",
                -8.18359088897705
            ],
            [
                "\u2581account",
                -8.182517051696777
            ],
            [
                "\u53bb",
                -7.811925411224365
            ],
            [
                "\u2581framework",
                -8.18760871887207
            ],
            [
                "\u2581high",
                -8.195403099060059
            ],
            [
                "\u2581available",
                -8.207060813903809
            ],
            [
                "\u2581\u5979",
                -7.932135105133057
            ],
            [
                "\u2581So",
                -8.081756591796875
            ],
            [
                "\u2581used",
                -8.185200691223145
            ],
            [
                "\u2581back",
                -8.072340965270996
            ],
            [
                "I",
                -8.498628616333008
            ],
            [
                "\u6559\u80b2",
                -7.835441589355469
            ],
            [
                "\u66f4",
                -7.880192756652832
            ],
            [
                "\u5404",
                -7.83762264251709
            ],
            [
                "\u4e00\u4e9b",
                -7.833522796630859
            ],
            [
                "al",
                -8.602609634399414
            ],
            [
                "\u2581Oh",
                -7.95569372177124
            ],
            [
                "\u2581She",
                -8.078195571899414
            ],
            [
                "\u8ba8\u8bba",
                -7.859957695007324
            ],
            [
                "Q",
                -10.530363082885742
            ],
            [
                "\u2581region",
                -8.20828914642334
            ],
            [
                "\u2581New",
                -8.158794403076172
            ],
            [
                "\u2581increase",
                -8.20422649383545
            ],
            [
                "\u2581Yeah",
                -7.953230381011963
            ],
            [
                "\u524d",
                -7.8497443199157715
            ],
            [
                "\u5176\u4ed6",
                -7.769991397857666
            ],
            [
                "\u2581noted",
                -8.239202499389648
            ],
            [
                "\u2581Fund",
                -8.206799507141113
            ],
            [
                "\u2581proposed",
                -8.228018760681152
            ],
            [
                "\u25814",
                -8.102156639099121
            ],
            [
                "\u2581European",
                -8.229069709777832
            ],
            [
                "14",
                -7.967407703399658
            ],
            [
                "\u2581May",
                -8.164380073547363
            ],
            [
                "\u65b0",
                -7.784533977508545
            ],
            [
                "\u56e0\u4e3a",
                -7.858790874481201
            ],
            [
                "\u2581importance",
                -8.235563278198242
            ],
            [
                "\u4ee5\u4fbf",
                -7.882683753967285
            ],
            [
                "\u2581area",
                -8.232192039489746
            ],
            [
                "\u7279\u522b",
                -7.870767116546631
            ],
            [
                "\u25818",
                -8.348182678222656
            ],
            [
                "\u2581humanitarian",
                -8.240554809570312
            ],
            [
                "\u2581Secretariat",
                -8.24549388885498
            ],
            [
                "\u63d0\u4ea4",
                -7.887709140777588
            ],
            [
                "\u7528",
                -7.846161842346191
            ],
            [
                "\u786e\u5b9a",
                -7.887008190155029
            ],
            [
                "\u2581considered",
                -8.244114875793457
            ],
            [
                "\u2581group",
                -8.226542472839355
            ],
            [
                "\u2581Women",
                -8.233919143676758
            ],
            [
                "\u2581based",
                -8.246854782104492
            ],
            [
                "\u7f14\u7ea6\u56fd",
                -7.830155849456787
            ],
            [
                "\u6280\u672f",
                -7.888638496398926
            ],
            [
                "\u2581society",
                -8.245884895324707
            ],
            [
                "\u2581delegation",
                -8.246320724487305
            ],
            [
                "\u2581address",
                -8.239008903503418
            ],
            [
                "B",
                -8.332159996032715
            ],
            [
                "\u2581promote",
                -8.247147560119629
            ],
            [
                "\u2581September",
                -8.187383651733398
            ],
            [
                "\u673a\u5236",
                -7.906851291656494
            ],
            [
                "\u2581submitted",
                -8.256826400756836
            ],
            [
                "\u2581D",
                -8.658247947692871
            ],
            [
                "\u5f97\u5230",
                -7.898134708404541
            ],
            [
                "\u2581conflict",
                -8.256135940551758
            ],
            [
                "\u2581developed",
                -8.265143394470215
            ],
            [
                "25",
                -8.043212890625
            ],
            [
                "\u2581Action",
                -8.258588790893555
            ],
            [
                "\u7cfb\u7edf",
                -7.9412007331848145
            ],
            [
                "\u25816.",
                -8.407503128051758
            ],
            [
                "16",
                -8.008317947387695
            ],
            [
                "\u258115",
                -8.212034225463867
            ],
            [
                "or",
                -8.56690502166748
            ],
            [
                "\u7684\u95ee\u9898",
                -8.040316581726074
            ],
            [
                "\u7684\u56fd\u5bb6",
                -7.980266571044922
            ],
            [
                "\u7ed9",
                -7.928152561187744
            ],
            [
                "\u5b89\u5168",
                -7.874671936035156
            ],
            [
                "\u6307\u51fa",
                -7.932180881500244
            ],
            [
                "\u2581particularly",
                -8.273785591125488
            ],
            [
                "\u2581Union",
                -8.2691011428833
            ],
            [
                "\u2581November",
                -8.2131929397583
            ],
            [
                "\u65af",
                -8.08695125579834
            ],
            [
                "\u2581participation",
                -8.276617050170898
            ],
            [
                "\u2581life",
                -8.213987350463867
            ],
            [
                "\u5ba1\u8bae",
                -7.878809928894043
            ],
            [
                "\u548c\u5176\u4ed6",
                -7.970719814300537
            ],
            [
                "\u2581If",
                -8.178475379943848
            ],
            [
                "\u2581resolutions",
                -8.309292793273926
            ],
            [
                "\u8bf4\u660e",
                -7.940340995788574
            ],
            [
                "\u2581sustainable",
                -8.275456428527832
            ],
            [
                "13",
                -8.027308464050293
            ],
            [
                "\u25816",
                -8.162989616394043
            ],
            [
                "\u2581October",
                -8.219218254089355
            ],
            [
                "\u2581poverty",
                -8.285942077636719
            ],
            [
                "\u2581child",
                -8.258041381835938
            ],
            [
                "\u2581because",
                -8.227031707763672
            ],
            [
                "\u2581bodies",
                -8.282008171081543
            ],
            [
                "\u554a",
                -7.922330379486084
            ],
            [
                "\u2581plan",
                -8.2648344039917
            ],
            [
                "\u4eba\u6743",
                -7.919921875
            ],
            [
                "\u7684\u60c5\u51b5",
                -8.022720336914062
            ],
            [
                "\u2581sector",
                -8.289044380187988
            ],
            [
                "\u53c2\u52a0",
                -7.929551601409912
            ],
            [
                "\u591a",
                -7.964715480804443
            ],
            [
                "\u51cf\u5c11",
                -7.970919132232666
            ],
            [
                "\u2581document",
                -8.282265663146973
            ],
            [
                "\u5229\u7528",
                -7.949942111968994
            ],
            [
                "\u8c03\u67e5",
                -7.945959568023682
            ],
            [
                "\u5168\u7403",
                -7.938420295715332
            ],
            [
                "\u258130",
                -8.232458114624023
            ],
            [
                "\u2581levels",
                -8.314608573913574
            ],
            [
                "\u2581note",
                -8.301054000854492
            ],
            [
                "\u2581specific",
                -8.303975105285645
            ],
            [
                "\u671f\u95f4",
                -7.9540910720825195
            ],
            [
                "19",
                -8.034369468688965
            ],
            [
                "23",
                -8.120828628540039
            ],
            [
                "\u5176\u4e2d",
                -7.951022148132324
            ],
            [
                "\u2581going",
                -8.122666358947754
            ],
            [
                "\u2581Article",
                -8.301644325256348
            ],
            [
                "\u4eba\u5458",
                -7.952104568481445
            ],
            [
                "2005",
                -7.93320369720459
            ],
            [
                "\u2581help",
                -8.231163024902344
            ],
            [
                "\u4f5c\u51fa",
                -7.993126392364502
            ],
            [
                "\u258112",
                -8.25061321258545
            ],
            [
                "\u2581Mission",
                -8.297813415527344
            ],
            [
                "\u2581field",
                -8.302772521972656
            ],
            [
                "\u2581long",
                -8.265929222106934
            ],
            [
                "\u25819",
                -8.447531700134277
            ],
            [
                "\u6587\u4ef6",
                -7.920276641845703
            ],
            [
                "\u6b63\u5728",
                -7.985305309295654
            ],
            [
                "\u2581required",
                -8.317571640014648
            ],
            [
                "\u2581come",
                -8.175955772399902
            ],
            [
                "\u2581current",
                -8.317078590393066
            ],
            [
                "\u79d8\u4e66\u5904",
                -7.900781631469727
            ],
            [
                "\u2581still",
                -8.267650604248047
            ],
            [
                "\u5462",
                -7.995590686798096
            ],
            [
                "\u2581weapons",
                -8.323744773864746
            ],
            [
                "31",
                -8.032230377197266
            ],
            [
                "\u2581project",
                -8.307415008544922
            ],
            [
                "\u597d",
                -7.943829536437988
            ],
            [
                "\u2581Department",
                -8.316215515136719
            ],
            [
                "\u2581agencies",
                -8.335187911987305
            ],
            [
                "\u2581future",
                -8.32407283782959
            ],
            [
                "\u2581civil",
                -8.333569526672363
            ],
            [
                "\u5177\u6709",
                -8.0331449508667
            ],
            [
                "\u5982",
                -7.9543070793151855
            ],
            [
                "n",
                -8.59553337097168
            ],
            [
                "\u8fd9\u4e2a",
                -7.963628768920898
            ],
            [
                "in",
                -8.595158576965332
            ],
            [
                "\u2581requirements",
                -8.337817192077637
            ],
            [
                "\u2581military",
                -8.347221374511719
            ],
            [
                "\u7814\u7a76",
                -7.976394176483154
            ],
            [
                "\u2581Declaration",
                -8.347410202026367
            ],
            [
                "\u5236\u5b9a",
                -7.9821953773498535
            ],
            [
                "\u2581requested",
                -8.350372314453125
            ],
            [
                "\u2581operations",
                -8.359489440917969
            ],
            [
                "\u2581various",
                -8.356334686279297
            ],
            [
                "\u8bc4\u4f30",
                -8.004743576049805
            ],
            [
                "\u2581Law",
                -8.335336685180664
            ],
            [
                "\u652f\u52a9",
                -8.013683319091797
            ],
            [
                "\u5e76\u4e14",
                -8.018051147460938
            ],
            [
                "\u2581Governments",
                -8.384883880615234
            ],
            [
                "\u2581authorities",
                -8.35998249053955
            ],
            [
                "\u9886\u57df",
                -8.00319766998291
            ],
            [
                "22",
                -8.131306648254395
            ],
            [
                "\u2581context",
                -8.360893249511719
            ],
            [
                "up",
                -8.392938613891602
            ],
            [
                "\u258120",
                -8.307134628295898
            ],
            [
                "\u2581\u4e0d",
                -8.138461112976074
            ],
            [
                "\u8d44\u6e90",
                -7.973686695098877
            ],
            [
                "21",
                -8.132046699523926
            ],
            [
                "\u6d89\u53ca",
                -8.032648086547852
            ],
            [
                "\u2581additional",
                -8.378796577453613
            ],
            [
                "\u2581March",
                -8.31020736694336
            ],
            [
                "\u8d1f\u8d23",
                -8.047581672668457
            ],
            [
                "\u2581addition",
                -8.377202033996582
            ],
            [
                "\u800c\u4e14",
                -7.981991291046143
            ],
            [
                "\u7a0b\u5e8f",
                -7.9971113204956055
            ],
            [
                "\u25817.",
                -8.529623985290527
            ],
            [
                "\u25812005",
                -8.64559555053711
            ],
            [
                "24",
                -8.153578758239746
            ],
            [
                "\u63a5\u53d7",
                -8.05138111114502
            ],
            [
                "\u55ce",
                -8.055896759033203
            ],
            [
                "\u2581means",
                -8.374828338623047
            ],
            [
                "\u8fdb\u4e00\u6b65",
                -8.04611873626709
            ],
            [
                "\u5f97",
                -8.054377555847168
            ],
            [
                "\u2581control",
                -8.374018669128418
            ],
            [
                "\u2581representatives",
                -8.402779579162598
            ],
            [
                "\u2581then",
                -8.325927734375
            ],
            [
                "\u2581agreed",
                -8.398470878601074
            ],
            [
                "\u2581police",
                -8.372735977172852
            ],
            [
                "\u2581down",
                -8.25793743133545
            ],
            [
                "\u2581even",
                -8.327479362487793
            ],
            [
                "D",
                -8.534592628479004
            ],
            [
                "\u2581Protocol",
                -8.392477989196777
            ],
            [
                "\u2581High",
                -8.391160011291504
            ],
            [
                "\u5f71\u54cd",
                -8.016006469726562
            ],
            [
                "\u5de5\u4f5c\u4eba\u5458",
                -8.04904842376709
            ],
            [
                "\u2581contained",
                -8.407353401184082
            ],
            [
                "\u2581\u8fd9",
                -8.070662498474121
            ],
            [
                "on",
                -8.653120994567871
            ],
            [
                "\u2581\u6839\u636e",
                -8.151878356933594
            ],
            [
                "\u2581South",
                -8.364273071289062
            ],
            [
                "\u2581Report",
                -8.38870620727539
            ],
            [
                "\u2581p",
                -8.481910705566406
            ],
            [
                "2000",
                -8.033952713012695
            ],
            [
                "\u56fd",
                -8.110773086547852
            ],
            [
                "\u2581mandate",
                -8.40104866027832
            ],
            [
                "\u2581\u59d4\u5458\u4f1a",
                -8.138591766357422
            ],
            [
                "\u2581towards",
                -8.400697708129883
            ],
            [
                "\u2581given",
                -8.400192260742188
            ],
            [
                "\u25817",
                -8.30334758758545
            ],
            [
                "\u5de5\u4f5c\u7ec4",
                -8.055154800415039
            ],
            [
                "\u5404\u79cd",
                -8.05786418914795
            ],
            [
                "\u4e4b\u540e",
                -8.078120231628418
            ],
            [
                "\u2581However",
                -8.414642333984375
            ],
            [
                "\u4e2d\u5fc3",
                -8.105607986450195
            ],
            [
                "\u2581above",
                -8.423269271850586
            ],
            [
                "\u2581April",
                -8.36433219909668
            ],
            [
                "\u81ea",
                -8.079118728637695
            ],
            [
                "\u89c1",
                -8.07007122039795
            ],
            [
                "\u6807\u51c6",
                -8.074788093566895
            ],
            [
                "\u76ee\u6807",
                -8.024670600891113
            ],
            [
                ".1",
                -8.635284423828125
            ],
            [
                "\u2581concern",
                -8.41701602935791
            ],
            [
                "\u2581impact",
                -8.425432205200195
            ],
            [
                "\u258111",
                -8.36640739440918
            ],
            [
                "\u258118",
                -8.379801750183105
            ],
            [
                "\u2581approach",
                -8.426843643188477
            ],
            [
                "\u2581representative",
                -8.425325393676758
            ],
            [
                "\u2581continued",
                -8.431681632995605
            ],
            [
                "2002",
                -8.078198432922363
            ],
            [
                "2004",
                -8.04927921295166
            ],
            [
                "\u2581change",
                -8.402806282043457
            ],
            [
                "\u2581family",
                -8.391867637634277
            ],
            [
                "\u2581projects",
                -8.442858695983887
            ],
            [
                "\u672c",
                -8.039144515991211
            ],
            [
                "\u2581conditions",
                -8.438390731811523
            ],
            [
                "\u2581attention",
                -8.431859016418457
            ],
            [
                "CN",
                -8.812328338623047
            ],
            [
                "28",
                -8.212409973144531
            ],
            [
                "\u2581Rapporteur",
                -8.433056831359863
            ],
            [
                "\u2581population",
                -8.425127029418945
            ],
            [
                "\u2581does",
                -8.376374244689941
            ],
            [
                "\u2581Affairs",
                -8.413400650024414
            ],
            [
                "\u534f\u52a9",
                -8.093722343444824
            ],
            [
                "\u2581organization",
                -8.428133010864258
            ],
            [
                "\u2581give",
                -8.366811752319336
            ],
            [
                "\u79d8\u4e66\u957f",
                -8.062760353088379
            ],
            [
                "2003",
                -8.078158378601074
            ],
            [
                "\u6bd4",
                -8.097603797912598
            ],
            [
                "\u2581\u5bf9",
                -8.513274192810059
            ],
            [
                "2006",
                -8.09713363647461
            ],
            [
                "\u2581request",
                -8.437905311584473
            ],
            [
                "\u51fa",
                -8.104889869689941
            ],
            [
                "27",
                -8.245010375976562
            ],
            [
                "\u80fd\u529b",
                -8.050530433654785
            ],
            [
                "\u6761\u7ea6",
                -8.174816131591797
            ],
            [
                "\u2581member",
                -8.442917823791504
            ],
            [
                "\u2581concerning",
                -8.444672584533691
            ],
            [
                "\u2581status",
                -8.452771186828613
            ],
            [
                "o",
                -8.763521194458008
            ],
            [
                "\u2581private",
                -8.456314086914062
            ],
            [
                "\u5b50",
                -8.136687278747559
            ],
            [
                "\u8868\u793a",
                -8.123262405395508
            ],
            [
                "\u4e4b\u95f4",
                -8.091887474060059
            ],
            [
                "\u4fe1\u606f",
                -8.057424545288086
            ],
            [
                "\u6210\u5458",
                -8.098703384399414
            ],
            [
                ")\u3001",
                -8.402215957641602
            ],
            [
                "\u5b89\u5168\u7406\u4e8b\u4f1a",
                -8.12906265258789
            ],
            [
                "\u7684\u6743\u5229",
                -8.17874813079834
            ],
            [
                "X",
                -10.295266151428223
            ],
            [
                "2001",
                -8.108892440795898
            ],
            [
                "\u2581\u4f46\u662f",
                -8.156903266906738
            ],
            [
                "\u534f\u8c03",
                -8.073594093322754
            ],
            [
                "\u2581major",
                -8.459539413452148
            ],
            [
                "\u2581establishment",
                -8.459413528442383
            ],
            [
                "\u5404\u56fd",
                -8.056831359863281
            ],
            [
                "\u5b89\u6392",
                -8.143765449523926
            ],
            [
                "\u65e0",
                -8.22289752960205
            ],
            [
                "\u7406\u4e8b\u4f1a",
                -8.103869438171387
            ],
            [
                "\u73af\u5883",
                -8.082459449768066
            ],
            [
                "\u2581Well",
                -8.282620429992676
            ],
            [
                "26",
                -8.237380981445312
            ],
            [
                "\u2581relating",
                -8.47111701965332
            ],
            [
                "\u2581January",
                -8.406744003295898
            ],
            [
                "\u8fc7",
                -8.102344512939453
            ],
            [
                "\u2581discrimination",
                -8.472407341003418
            ],
            [
                "\u63f4\u52a9",
                -8.126200675964355
            ],
            [
                "\u56e0\u6b64",
                -8.103803634643555
            ],
            [
                "\u8003\u8651",
                -8.132426261901855
            ],
            [
                "\u5206",
                -8.193892478942871
            ],
            [
                "\u4e4b",
                -8.21247386932373
            ],
            [
                "\u2581say",
                -8.335689544677734
            ],
            [
                "\u2581gonna",
                -8.306670188903809
            ],
            [
                "\u2581statement",
                -8.468443870544434
            ],
            [
                "\u5b83\u4eec",
                -8.09019947052002
            ],
            [
                "see",
                -8.480334281921387
            ],
            [
                "\u25818.",
                -8.64327335357666
            ],
            [
                "\u2581rules",
                -8.484065055847168
            ],
            [
                "\u2581consider",
                -8.46821117401123
            ],
            [
                "\u6743\u5229",
                -8.125201225280762
            ],
            [
                "\u5236\u5ea6",
                -8.166037559509277
            ],
            [
                "\u2581justice",
                -8.476105690002441
            ],
            [
                "\u2581How",
                -8.2937593460083
            ],
            [
                "\u5730\u533a",
                -8.101262092590332
            ],
            [
                "\u25812006",
                -8.786439895629883
            ],
            [
                "\u4e16\u754c",
                -8.143308639526367
            ],
            [
                "\u4e3b\u8981",
                -8.06025218963623
            ],
            [
                "\u2581care",
                -8.42326545715332
            ],
            [
                "\u2581Palestinian",
                -8.49386978149414
            ],
            [
                "\u2581comprehensive",
                -8.491798400878906
            ],
            [
                "\u2581second",
                -8.459381103515625
            ],
            [
                "\u2581better",
                -8.428642272949219
            ],
            [
                "\u5e94\u5f53",
                -8.117415428161621
            ],
            [
                "\u2581question",
                -8.4846830368042
            ],
            [
                "\u2014",
                -10.779707908630371
            ],
            [
                "\u25812000",
                -8.748658180236816
            ],
            [
                "\u2581force",
                -8.486734390258789
            ],
            [
                "\u662f\u5426",
                -8.159589767456055
            ],
            [
                "\u62c9",
                -8.204276084899902
            ],
            [
                "\u2581total",
                -8.501270294189453
            ],
            [
                "\u25812004",
                -8.771570205688477
            ],
            [
                "\u2581legislation",
                -8.512038230895996
            ],
            [
                "\u56e0",
                -8.16757869720459
            ],
            [
                "\u4e3b\u5e2d",
                -8.135025024414062
            ],
            [
                "\u2581entitled",
                -8.514978408813477
            ],
            [
                "\u2581own",
                -8.45054817199707
            ],
            [
                "\u53d1\u8a00",
                -8.16170883178711
            ],
            [
                "\u2581monitoring",
                -8.51956558227539
            ],
            [
                "\u60f3",
                -8.137213706970215
            ],
            [
                "\u2581F",
                -8.8954496383667
            ],
            [
                "\u25812002",
                -8.777605056762695
            ],
            [
                "\u2581provision",
                -8.518078804016113
            ],
            [
                "\u2581reporting",
                -8.51473617553711
            ],
            [
                "\u2581systems",
                -8.541321754455566
            ],
            [
                "\u2581taking",
                -8.486711502075195
            ],
            [
                "\u2581inter",
                -8.52083969116211
            ],
            [
                "\u53d7",
                -8.218174934387207
            ],
            [
                "2007",
                -8.159758567810059
            ],
            [
                "\u2581whether",
                -8.510235786437988
            ],
            [
                "\u2581expressed",
                -8.52122974395752
            ],
            [
                "\u2581strengthen",
                -8.523016929626465
            ],
            [
                "\u2581coordination",
                -8.525186538696289
            ],
            [
                "\u2581received",
                -8.514932632446289
            ],
            [
                "29",
                -8.326828956604004
            ],
            [
                "\u2581domestic",
                -8.532646179199219
            ],
            [
                "\u2581men",
                -8.486279487609863
            ],
            [
                "\u2581addressed",
                -8.522085189819336
            ],
            [
                "\u8d39\u7528",
                -8.1710786819458
            ],
            [
                "2008",
                -8.161012649536133
            ],
            [
                "\u2581Yes",
                -8.248106956481934
            ],
            [
                "\u4e3e\u884c",
                -8.169710159301758
            ],
            [
                "\u2581different",
                -8.51690673828125
            ],
            [
                "\u2581much",
                -8.437880516052246
            ],
            [
                "\u25812003",
                -8.810906410217285
            ],
            [
                "\u2581existing",
                -8.530306816101074
            ],
            [
                "\u5f00\u59cb",
                -8.184370040893555
            ],
            [
                "\u2581mechanisms",
                -8.547538757324219
            ],
            [
                "\u2581implement",
                -8.530609130859375
            ],
            [
                "\u2581Executive",
                -8.528420448303223
            ],
            [
                "\u2581responsibility",
                -8.541082382202148
            ],
            [
                "\u2581II",
                -8.520843505859375
            ],
            [
                "\u2581man",
                -8.388516426086426
            ],
            [
                "\u2581armed",
                -8.545854568481445
            ],
            [
                "\u8bf7",
                -8.172917366027832
            ],
            [
                "\u5171\u540c",
                -8.2133207321167
            ],
            [
                "\u2581therefore",
                -8.547696113586426
            ],
            [
                "\u2581\u5982\u679c",
                -8.21449089050293
            ],
            [
                "\u2581practices",
                -8.55181884765625
            ],
            [
                "\u6709\u5173\u7684",
                -8.303658485412598
            ],
            [
                "\u6700",
                -8.197182655334473
            ],
            [
                "\u2581increased",
                -8.54684066772461
            ],
            [
                "\u4e4b\u524d",
                -8.200117111206055
            ],
            [
                "\u2581especially",
                -8.55502700805664
            ],
            [
                "\u2581last",
                -8.488344192504883
            ],
            [
                "\u2581Act",
                -8.534242630004883
            ],
            [
                "\u2581costs",
                -8.55611801147461
            ],
            [
                "\u2581annex",
                -8.545433044433594
            ],
            [
                "\u2581result",
                -8.553084373474121
            ],
            [
                "\u90e8\u95e8",
                -8.194242477416992
            ],
            [
                "\u653f\u6cbb",
                -8.201580047607422
            ],
            [
                "\u2581principles",
                -8.567580223083496
            ],
            [
                "\u2581Arab",
                -8.47458267211914
            ],
            [
                "\u57f9\u8bad",
                -8.164787292480469
            ],
            [
                "\u258116",
                -8.486220359802246
            ],
            [
                "\u2581technology",
                -8.559017181396484
            ],
            [
                "\u2581too",
                -8.426226615905762
            ],
            [
                "\u2581included",
                -8.561738967895508
            ],
            [
                "%",
                -9.638215065002441
            ],
            [
                "\u2581procedures",
                -8.564929962158203
            ],
            [
                "\u2581obligations",
                -8.567184448242188
            ],
            [
                "\u4ee3\u8868\u56e2",
                -8.218603134155273
            ],
            [
                "\u7279",
                -8.276905059814453
            ],
            [
                "\u258114",
                -8.456138610839844
            ],
            [
                "\u5e2e\u52a9",
                -8.220736503601074
            ],
            [
                "\u7684\u5efa\u8bae",
                -8.333892822265625
            ],
            [
                "\u672a",
                -8.236716270446777
            ],
            [
                "\u6cd5\u9662",
                -8.211811065673828
            ],
            [
                "\u5916",
                -8.243880271911621
            ],
            [
                "\u25819.",
                -8.711487770080566
            ],
            [
                "\u25812008",
                -8.8888521194458
            ],
            [
                "\u63d0\u9ad8",
                -8.213776588439941
            ],
            [
                "\u5bf9\u4e8e",
                -8.222710609436035
            ],
            [
                "\u2581fully",
                -8.571745872497559
            ],
            [
                "\u70b9",
                -8.232471466064453
            ],
            [
                "\u25812007",
                -8.887411117553711
            ],
            [
                "\u2581personnel",
                -8.56903076171875
            ],
            [
                "\u258113",
                -8.50970458984375
            ],
            [
                "\u2581results",
                -8.580193519592285
            ],
            [
                "\u76ee\u524d",
                -8.19131088256836
            ],
            [
                "\u884c\u4e3a",
                -8.242647171020508
            ],
            [
                "\u2581might",
                -8.537858009338379
            ],
            [
                "\u258119",
                -8.59763240814209
            ],
            [
                "\u2581\u4ed6\u4eec",
                -8.338285446166992
            ],
            [
                "\u4ec0\u4e48",
                -8.210268020629883
            ],
            [
                "\u6309\u7167",
                -8.197587966918945
            ],
            [
                "\u5f88",
                -8.199443817138672
            ],
            [
                "\u53d7\u5230",
                -8.242154121398926
            ],
            [
                "\u258117",
                -8.541369438171387
            ],
            [
                "\u6c34",
                -8.264199256896973
            ],
            [
                "\u65b9\u9762\u7684",
                -8.289140701293945
            ],
            [
                "\u7528\u4e8e",
                -8.251296997070312
            ],
            [
                "\u2581standards",
                -8.5974702835083
            ],
            [
                "\u5f3a\u8c03",
                -8.20351505279541
            ],
            [
                "\u2581rule",
                -8.585911750793457
            ],
            [
                "\u516c\u53f8",
                -8.261980056762695
            ],
            [
                "\u5e94\u8be5",
                -8.201639175415039
            ],
            [
                "\u25812001",
                -8.843550682067871
            ],
            [
                "\u2581water",
                -8.558759689331055
            ],
            [
                "\u2581criminal",
                -8.5885648727417
            ],
            [
                "\u2581adoption",
                -8.604430198669434
            ],
            [
                "\u2581small",
                -8.5877103805542
            ],
            [
                "\u2581key",
                -8.587188720703125
            ],
            [
                "\u2581terms",
                -8.59846305847168
            ],
            [
                "\u2581subject",
                -8.587259292602539
            ],
            [
                "\u2581fact",
                -8.582021713256836
            ],
            [
                "\u627f\u8bfa",
                -8.233738899230957
            ],
            [
                "\u4eba\u6c11",
                -8.325761795043945
            ],
            [
                "\u2581amount",
                -8.539752006530762
            ],
            [
                "\u2581regarding",
                -8.608688354492188
            ],
            [
                "\u81ea\u5df1",
                -8.21487808227539
            ],
            [
                "\u2581These",
                -8.591020584106445
            ],
            [
                "\u2581environment",
                -8.596943855285645
            ],
            [
                "h",
                -9.027746200561523
            ],
            [
                "\u65b9\u5f0f",
                -8.223079681396484
            ],
            [
                "\u2581funds",
                -8.623895645141602
            ],
            [
                "\u258131",
                -8.555448532104492
            ],
            [
                "\u2581already",
                -8.571008682250977
            ],
            [
                "\u5c0f",
                -8.226387023925781
            ],
            [
                "\u2581000",
                -8.305310249328613
            ],
            [
                "\u5982\u679c",
                -8.233001708984375
            ],
            [
                "\u5fb7",
                -8.340693473815918
            ],
            [
                "\u5c0f\u7ec4",
                -8.251672744750977
            ],
            [
                "\u90e8\u5206",
                -8.275357246398926
            ],
            [
                "\u2581Representative",
                -8.597989082336426
            ],
            [
                "\u65f6\u95f4",
                -8.25910758972168
            ],
            [
                "\u975e\u6d32",
                -8.250617027282715
            ],
            [
                "\u6210\u4e3a",
                -8.2888765335083
            ],
            [
                "\u57fa\u91d1",
                -8.367376327514648
            ],
            [
                "\u2581contributions",
                -8.629342079162598
            ],
            [
                "\u00e9",
                -10.615792274475098
            ],
            [
                "\u2581day",
                -8.503318786621094
            ],
            [
                "\u2581With",
                -8.603657722473145
            ],
            [
                "*",
                -9.249898910522461
            ],
            [
                "\u4e0d\u80fd",
                -8.239087104797363
            ],
            [
                "\u2581\u4f46",
                -8.324321746826172
            ],
            [
                "\u2581improve",
                -8.630632400512695
            ],
            [
                "\u5982\u4f55",
                -8.272377014160156
            ],
            [
                "\u2581follow",
                -8.598372459411621
            ],
            [
                "\u2581peacekeeping",
                -8.637916564941406
            ],
            [
                "\u2581challenges",
                -8.633008003234863
            ],
            [
                "\u9ad8",
                -8.339384078979492
            ],
            [
                "\u4e2d\u7684",
                -8.250933647155762
            ],
            [
                "\u5219",
                -8.300862312316895
            ],
            [
                "\u7531\u4e8e",
                -8.266409873962402
            ],
            [
                "\u2581My",
                -8.489277839660645
            ],
            [
                "\u2581agreement",
                -8.628776550292969
            ],
            [
                "\u2581decided",
                -8.628253936767578
            ],
            [
                "\u2581Ministry",
                -8.631114959716797
            ],
            [
                "\u2581risk",
                -8.626235008239746
            ],
            [
                "\u627f\u8ba4",
                -8.310518264770508
            ],
            [
                "\u4e00\u9879",
                -8.278316497802734
            ],
            [
                "\u2581consultations",
                -8.6552734375
            ],
            [
                "\u975e",
                -8.27771282196045
            ],
            [
                "\u2581providing",
                -8.642568588256836
            ],
            [
                "\u534f\u5b9a",
                -8.325798034667969
            ],
            [
                "\u2581response",
                -8.641974449157715
            ],
            [
                "\u2581person",
                -8.608480453491211
            ],
            [
                "\u5973\u58eb",
                -8.36727523803711
            ],
            [
                "\u505a",
                -8.238771438598633
            ],
            [
                "\u2581strengthening",
                -8.650557518005371
            ],
            [
                "\u2581called",
                -8.616164207458496
            ],
            [
                "based",
                -8.64832878112793
            ],
            [
                "\u2581Come",
                -8.437390327453613
            ],
            [
                "\u90a3",
                -8.267292976379395
            ],
            [
                "\u5bb6\u5ead",
                -8.276470184326172
            ],
            [
                "\u2581secretariat",
                -8.64488410949707
            ],
            [
                "\u6570\u636e",
                -8.31209945678711
            ],
            [
                "\u2581decisions",
                -8.678193092346191
            ],
            [
                "\u2581August",
                -8.595403671264648
            ],
            [
                "\u2581Advisory",
                -8.65185546875
            ],
            [
                "\u65e0\u6cd5",
                -8.326108932495117
            ],
            [
                "\u8d44\u6599",
                -8.275633811950684
            ],
            [
                "\u2581indigenous",
                -8.666000366210938
            ],
            [
                "\u2581together",
                -8.617405891418457
            ],
            [
                "\u9f13\u52b1",
                -8.28361701965332
            ],
            [
                "\u53c8",
                -8.282000541687012
            ],
            [
                "\u2581terrorism",
                -8.662554740905762
            ],
            [
                "\u5e0c\u671b",
                -8.274847984313965
            ],
            [
                "\u2581food",
                -8.646173477172852
            ],
            [
                "\u2581best",
                -8.625329971313477
            ],
            [
                "\u539f\u5219",
                -8.304305076599121
            ],
            [
                "\u2581commitment",
                -8.661526679992676
            ],
            [
                "\u2581victims",
                -8.662742614746094
            ],
            [
                "\u258110.",
                -8.803411483764648
            ],
            [
                "\u2581\u662f",
                -8.809001922607422
            ],
            [
                "\u2581post",
                -8.657339096069336
            ],
            [
                "\u7740",
                -8.341975212097168
            ],
            [
                "\u2581call",
                -8.604909896850586
            ],
            [
                "\u540c\u65f6",
                -8.264739036560059
            ],
            [
                "\u8d44\u91d1",
                -8.313748359680176
            ],
            [
                "\u2581off",
                -8.569339752197266
            ],
            [
                "\u9884\u7b97",
                -8.31998348236084
            ],
            [
                "\u2581HIV",
                -8.670653343200684
            ],
            [
                "\u2581least",
                -8.649001121520996
            ],
            [
                "\u2581America",
                -8.634465217590332
            ],
            [
                "\u2581behalf",
                -8.680768966674805
            ],
            [
                "\u2581service",
                -8.663293838500977
            ],
            [
                "\u2581disarmament",
                -8.67800235748291
            ],
            [
                "\u2581Let",
                -8.486443519592285
            ],
            [
                "governmental",
                -8.656759262084961
            ],
            [
                "\u8ba9",
                -8.275521278381348
            ],
            [
                "\u2581Do",
                -8.558389663696289
            ],
            [
                "\u2581assessment",
                -8.681625366210938
            ],
            [
                "\u2581environmental",
                -8.675716400146484
            ],
            [
                "\u2581February",
                -8.611627578735352
            ],
            [
                "\u529e\u6cd5",
                -8.318487167358398
            ],
            [
                "building",
                -8.685599327087402
            ],
            [
                "\u2581example",
                -8.670721054077148
            ],
            [
                "\u2581initiatives",
                -8.69228458404541
            ],
            [
                "\u2581Iraq",
                -8.661218643188477
            ],
            [
                "\u2581put",
                -8.60840892791748
            ],
            [
                "\u2581government",
                -8.653130531311035
            ],
            [
                "\u2581*",
                -8.36579418182373
            ],
            [
                "\u2581due",
                -8.680218696594238
            ],
            [
                "\u4ee5\u8272\u5217",
                -8.318334579467773
            ],
            [
                "\u2581matter",
                -8.643414497375488
            ],
            [
                "\u5b8c\u6210",
                -8.345298767089844
            ],
            [
                "\u2581recent",
                -8.700643539428711
            ],
            [
                "\u2581mission",
                -8.69494915008545
            ],
            [
                "\u2581five",
                -8.67740249633789
            ],
            [
                "\u2581prevention",
                -8.702571868896484
            ],
            [
                "\u2581de",
                -8.8298978805542
            ],
            [
                "\u5316",
                -8.411685943603516
            ],
            [
                "\u2581Israel",
                -8.66541576385498
            ],
            [
                "\u2581Why",
                -8.536698341369629
            ],
            [
                "\u2581another",
                -8.659002304077148
            ],
            [
                "\u9879",
                -8.34165096282959
            ],
            [
                "\u2581provides",
                -8.739943504333496
            ],
            [
                "\u2581Hey",
                -8.44449234008789
            ],
            [
                "\u5177\u4f53",
                -8.338983535766602
            ],
            [
                "\u6ce8\u610f\u5230",
                -8.33928108215332
            ],
            [
                "\u90e8",
                -8.376368522644043
            ],
            [
                "\u79d1",
                -8.445651054382324
            ],
            [
                "\u7279\u6d3e\u56e2",
                -8.389764785766602
            ],
            [
                "\u2581reported",
                -8.711808204650879
            ],
            [
                "\u2581several",
                -8.711443901062012
            ],
            [
                "\u2581dialogue",
                -8.70893669128418
            ],
            [
                "\u2581meet",
                -8.67658805847168
            ],
            [
                "\u4f1a\u5458\u56fd",
                -8.319735527038574
            ],
            [
                "\u7684\u80fd\u529b",
                -8.45527172088623
            ],
            [
                "\u2581lack",
                -8.708991050720215
            ],
            [
                "\u76f8\u5173",
                -8.241625785827637
            ],
            [
                "\u258111.",
                -8.881866455078125
            ],
            [
                "\u2581never",
                -8.617063522338867
            ],
            [
                "\u2581took",
                -8.676231384277344
            ],
            [
                "\u2581develop",
                -8.720622062683105
            ],
            [
                "F",
                -8.761167526245117
            ],
            [
                "\u2581actions",
                -8.749028205871582
            ],
            [
                "\u2581common",
                -8.731114387512207
            ],
            [
                "\u2581...",
                -9.387788772583008
            ],
            [
                "\u7684\u5f71\u54cd",
                -8.495649337768555
            ],
            [
                "\u5168\u9762",
                -8.359772682189941
            ],
            [
                "\u2581space",
                -8.723529815673828
            ],
            [
                "\u2581equality",
                -8.734749794006348
            ],
            [
                "\u6743",
                -8.432663917541504
            ],
            [
                "\u65b9\u6cd5",
                -8.3477783203125
            ],
            [
                "\u2581significant",
                -8.742094993591309
            ],
            [
                "\u2581little",
                -8.59374713897705
            ],
            [
                "\u2581strategy",
                -8.746550559997559
            ],
            [
                "\u91c7\u7528",
                -8.409862518310547
            ],
            [
                "\u2581every",
                -8.683138847351074
            ],
            [
                "\u6539\u5584",
                -8.380120277404785
            ],
            [
                "\u548c\u5e73",
                -8.387051582336426
            ],
            [
                "\u2581land",
                -8.705585479736328
            ],
            [
                "\u5929",
                -8.371623039245605
            ],
            [
                "\u2581East",
                -8.74890422821045
            ],
            [
                "\u2581four",
                -8.71277904510498
            ],
            [
                "es",
                -8.910935401916504
            ],
            [
                "\u2581Service",
                -8.725025177001953
            ],
            [
                "\u2581Ms",
                -8.741101264953613
            ],
            [
                "1999",
                -8.407445907592773
            ],
            [
                "un",
                -9.298518180847168
            ],
            [
                "\u2581again",
                -8.655707359313965
            ],
            [
                "\u2581reform",
                -8.743038177490234
            ],
            [
                "\u2581application",
                -8.755058288574219
            ],
            [
                "\u2581problems",
                -8.748941421508789
            ],
            [
                "\u5bb6",
                -8.398626327514648
            ],
            [
                "\u5c14",
                -8.591503143310547
            ],
            [
                "\u90a3\u4e9b",
                -8.3550443649292
            ],
            [
                "\u624b",
                -8.449767112731934
            ],
            [
                "\u4ee5\u4e0b",
                -8.393575668334961
            ],
            [
                "\u2581missions",
                -8.767653465270996
            ],
            [
                "\u2581really",
                -8.580013275146484
            ],
            [
                "2009",
                -8.405580520629883
            ],
            [
                "\u2581matters",
                -8.763040542602539
            ],
            [
                "\u2581look",
                -8.602048873901367
            ],
            [
                "\u258122",
                -8.688328742980957
            ],
            [
                "\u2581next",
                -8.717082977294922
            ],
            [
                "\u6309",
                -8.398795127868652
            ],
            [
                "\u6846\u67b6",
                -8.426615715026855
            ],
            [
                "\u4e09",
                -8.383654594421387
            ],
            [
                "\u2581trafficking",
                -8.768969535827637
            ],
            [
                "\u2581am",
                -8.669726371765137
            ],
            [
                "\u2581done",
                -8.668959617614746
            ],
            [
                "\u2581\u8fd9\u4e9b",
                -8.459290504455566
            ],
            [
                "\u2581cost",
                -8.74344539642334
            ],
            [
                "\u4f8b\u5982",
                -8.385622024536133
            ],
            [
                "\u2581documents",
                -8.775278091430664
            ],
            [
                "\u514b",
                -8.529308319091797
            ],
            [
                "\u2581something",
                -8.603185653686523
            ],
            [
                "r",
                -8.962118148803711
            ],
            [
                "\u258121",
                -8.660794258117676
            ],
            [
                "\u4e8c",
                -8.421834945678711
            ],
            [
                "\u4e2a\u4eba",
                -8.371339797973633
            ],
            [
                "\u518d",
                -8.400876998901367
            ],
            [
                "\u2581requests",
                -8.766077995300293
            ],
            [
                "\u2581arms",
                -8.768823623657227
            ],
            [
                "\u2581regular",
                -8.772163391113281
            ],
            [
                "\u2581G",
                -9.301304817199707
            ],
            [
                "\u2581peoples",
                -8.811620712280273
            ],
            [
                "\u5c24\u5176\u662f",
                -8.389047622680664
            ],
            [
                "\u2581\u5b83",
                -8.545248031616211
            ],
            [
                "\u2581\u7136\u800c",
                -8.437150955200195
            ],
            [
                "\u2581establish",
                -8.774872779846191
            ],
            [
                "\u2019",
                -13.662398338317871
            ],
            [
                "\u8bbe\u7acb",
                -8.404290199279785
            ],
            [
                "\u2581UNDP",
                -8.781173706054688
            ],
            [
                "\u63a8\u52a8",
                -8.423587799072266
            ],
            [
                "\u2581biennium",
                -8.767684936523438
            ],
            [
                "\u9488\u5bf9",
                -8.404577255249023
            ],
            [
                "\u2581found",
                -8.71699333190918
            ],
            [
                "\u2581promotion",
                -8.793554306030273
            ],
            [
                "\u53d1\u751f",
                -8.413351058959961
            ],
            [
                "\u2581\u8054\u5408\u56fd",
                -8.663958549499512
            ],
            [
                "\u6279\u51c6",
                -8.433716773986816
            ],
            [
                "\u540c\u610f",
                -8.427868843078613
            ],
            [
                "\u7684\u6240\u6709",
                -8.54005241394043
            ],
            [
                "\u4e0d\u662f",
                -8.39210319519043
            ],
            [
                "\u7684\u6d3b\u52a8",
                -8.554206848144531
            ],
            [
                "\u2581Permanent",
                -8.766561508178711
            ],
            [
                "\u2581business",
                -8.751015663146973
            ],
            [
                "\u2581crime",
                -8.772602081298828
            ],
            [
                "\u76d1\u6d4b",
                -8.397382736206055
            ],
            [
                "\u2581didn",
                -8.631831169128418
            ],
            [
                "\u2581tell",
                -8.645339012145996
            ],
            [
                "\u2581Information",
                -8.793943405151367
            ],
            [
                "\u6539\u9769",
                -8.436466217041016
            ],
            [
                "\u2581para",
                -8.804862022399902
            ],
            [
                "\u963f",
                -8.555575370788574
            ],
            [
                "\u2581girls",
                -8.764076232910156
            ],
            [
                ")(",
                -8.696091651916504
            ],
            [
                "\u258112.",
                -8.948298454284668
            ],
            [
                "\u2581planning",
                -8.784945487976074
            ],
            [
                "\u63d0\u4f9b\u4e86",
                -8.483662605285645
            ],
            [
                "\u258125",
                -8.735336303710938
            ],
            [
                "\u2581practice",
                -8.784120559692383
            ],
            [
                "\u2581doing",
                -8.605937957763672
            ],
            [
                "\u2581acts",
                -8.811015129089355
            ],
            [
                "term",
                -8.8015718460083
            ],
            [
                "\u5904",
                -8.508883476257324
            ],
            [
                "\u2581main",
                -8.800130844116211
            ],
            [
                "\u7f8e\u56fd",
                -8.38696002960205
            ],
            [
                "\u4f5c",
                -8.466068267822266
            ],
            [
                "\u2581cultural",
                -8.810152053833008
            ],
            [
                "\u2581employment",
                -8.805895805358887
            ],
            [
                "\u2581focus",
                -8.795805931091309
            ],
            [
                "\u4fdd\u8bc1",
                -8.461684226989746
            ],
            [
                "\u8054\u5408",
                -8.47852611541748
            ],
            [
                "\u2581priority",
                -8.808191299438477
            ],
            [
                "\u2581One",
                -8.740381240844727
            ],
            [
                "\u2581While",
                -8.806182861328125
            ],
            [
                "\u4f5c\u7528",
                -8.510546684265137
            ],
            [
                "\u2581needed",
                -8.799257278442383
            ],
            [
                "\u2581\u90a3",
                -8.476499557495117
            ],
            [
                "\u2581re",
                -8.976059913635254
            ],
            [
                "\u7684\u60c5\u51b5\u4e0b",
                -8.519169807434082
            ],
            [
                "\u2581find",
                -8.684855461120605
            ],
            [
                "\u2581administrative",
                -8.814693450927734
            ],
            [
                "\u2581research",
                -8.802780151367188
            ],
            [
                "\u4f60\u7684",
                -8.446245193481445
            ],
            [
                "\u2581Don",
                -8.647995948791504
            ],
            [
                "\u2581course",
                -8.745148658752441
            ],
            [
                "\u6295\u8d44",
                -8.501917839050293
            ],
            [
                "\u2581\u4e3a",
                -8.96367359161377
            ],
            [
                "\u2581Commissioner",
                -8.811954498291016
            ],
            [
                "\u2581\u8bf7",
                -8.535924911499023
            ],
            [
                "\u5baa\u6cd5",
                -8.482288360595703
            ],
            [
                "\u2581China",
                -8.765735626220703
            ],
            [
                "\u2581Okay",
                -8.536014556884766
            ],
            [
                "\u2581Millennium",
                -8.815958976745605
            ],
            [
                "\u2581problem",
                -8.788944244384766
            ],
            [
                "\u2581growth",
                -8.819843292236328
            ],
            [
                "\u258123",
                -8.756571769714355
            ],
            [
                "\u2581procedure",
                -8.817828178405762
            ],
            [
                "\u2581funding",
                -8.833536148071289
            ],
            [
                "\u2581violations",
                -8.832809448242188
            ],
            [
                "\u2581recommended",
                -8.827187538146973
            ],
            [
                "\u7f51\u7edc",
                -8.494318008422852
            ],
            [
                "\u2581serious",
                -8.811702728271484
            ],
            [
                "\u2581third",
                -8.820500373840332
            ],
            [
                "\u2581Democratic",
                -8.759455680847168
            ],
            [
                "\u9650\u5236",
                -8.507747650146484
            ],
            [
                "\u2581operational",
                -8.853610038757324
            ],
            [
                "\u2581great",
                -8.72914981842041
            ],
            [
                "2010",
                -8.508132934570312
            ],
            [
                "\u2581sexual",
                -8.83894157409668
            ],
            [
                "\u5728\u5176",
                -8.574565887451172
            ],
            [
                "\u2581mean",
                -8.65017032623291
            ],
            [
                "\u56fd\u9645\u793e\u4f1a",
                -8.434455871582031
            ],
            [
                "\u2581partners",
                -8.839542388916016
            ],
            [
                "\u2581prevent",
                -8.827861785888672
            ],
            [
                "\u2581yet",
                -8.794190406799316
            ],
            [
                "40",
                -8.684340476989746
            ],
            [
                "\u2581Panel",
                -8.834473609924316
            ],
            [
                "\u8d77",
                -8.500438690185547
            ],
            [
                "\u2581strategies",
                -8.838689804077148
            ],
            [
                "\u4e0d\u540c",
                -8.476828575134277
            ],
            [
                "\u2581agreements",
                -8.849079132080078
            ],
            [
                "\u2581treaty",
                -8.84571647644043
            ],
            [
                "\u4e4b\u95f4\u7684",
                -8.604591369628906
            ],
            [
                "\u4eba\u53e3",
                -8.499098777770996
            ],
            [
                "\u4ecd\u7136",
                -8.50666332244873
            ],
            [
                "\u2581clear",
                -8.822572708129883
            ],
            [
                "\u5229",
                -8.597481727600098
            ],
            [
                "\u2581Director",
                -8.830022811889648
            ],
            [
                "\u258124",
                -8.773605346679688
            ],
            [
                "\u529e\u516c\u5ba4",
                -8.5797700881958
            ],
            [
                "\u5361",
                -8.521957397460938
            ],
            [
                "\u63d0\u51fa\u7684",
                -8.629587173461914
            ],
            [
                "\u8fdb\u7a0b",
                -8.496688842773438
            ],
            [
                "\u2581around",
                -8.772384643554688
            ],
            [
                "\u2581discussion",
                -8.847148895263672
            ],
            [
                "\u25812009",
                -9.161382675170898
            ],
            [
                "\u7981\u6b62",
                -8.582481384277344
            ],
            [
                "\u8d70",
                -8.481430053710938
            ],
            [
                "\u2581Treaty",
                -8.858980178833008
            ],
            [
                "\u2581treatment",
                -8.851987838745117
            ],
            [
                "\u73b0\u5728",
                -8.491620063781738
            ],
            [
                "\u9020\u6210",
                -8.477151870727539
            ],
            [
                "\u2581instruments",
                -8.864635467529297
            ],
            [
                ";(",
                -8.610020637512207
            ],
            [
                "\u2581\u6211\u5011",
                -8.57388687133789
            ],
            [
                "\u2581forces",
                -8.874937057495117
            ],
            [
                "\u8868\u660e",
                -8.520974159240723
            ],
            [
                "\u76f4\u63a5",
                -8.534852027893066
            ],
            [
                "\u5b89\u7406\u4f1a",
                -8.533533096313477
            ],
            [
                "\u2581reduction",
                -8.857994079589844
            ],
            [
                "\u2581statements",
                -8.875368118286133
            ],
            [
                "\u2581annual",
                -8.856465339660645
            ],
            [
                "\u897f",
                -8.576070785522461
            ],
            [
                "\u9009\u4e3e",
                -8.473953247070312
            ],
            [
                "\u4e0a\u8ff0",
                -8.482470512390137
            ],
            [
                "\u2581promoting",
                -8.86922836303711
            ],
            [
                "\u2581achieve",
                -8.861273765563965
            ],
            [
                "\u2581\u5c31",
                -8.759451866149902
            ],
            [
                "\u6211\u5011",
                -8.499017715454102
            ],
            [
                "\u5206\u6790",
                -8.478726387023926
            ],
            [
                "\u5408\u540c",
                -8.53878116607666
            ],
            [
                "\u4e86\u89e3",
                -8.540692329406738
            ],
            [
                "\u533a",
                -8.549381256103516
            ],
            [
                "\u2581Covenant",
                -8.86336898803711
            ],
            [
                "\u6709\u6548",
                -8.421982765197754
            ],
            [
                "\u8bb8\u591a",
                -8.487186431884766
            ],
            [
                "\u2581however",
                -8.868538856506348
            ],
            [
                "[",
                -8.538771629333496
            ],
            [
                "\u25811999",
                -9.123443603515625
            ],
            [
                "\u2581responsible",
                -8.867395401000977
            ],
            [
                "\u2581Chairman",
                -8.863203048706055
            ],
            [
                "\u89c4\u5219",
                -8.540801048278809
            ],
            [
                "\u2581let",
                -8.704806327819824
            ],
            [
                "\u2581Centre",
                -8.858684539794922
            ],
            [
                "\u9632\u6b62",
                -8.527582168579102
            ],
            [
                "\u2581office",
                -8.843551635742188
            ],
            [
                "\u5236\u8ba2",
                -8.51268196105957
            ],
            [
                "\u7684\u89c4\u5b9a",
                -8.625032424926758
            ],
            [
                "\u8bba\u575b",
                -8.547521591186523
            ],
            [
                "\u2581involved",
                -8.87574577331543
            ],
            [
                "\u2581committed",
                -8.877134323120117
            ],
            [
                "\u5c31\u662f",
                -8.525227546691895
            ],
            [
                "\u2581past",
                -8.86816120147705
            ],
            [
                "\u6761\u4ef6",
                -8.502188682556152
            ],
            [
                "\u2581equipment",
                -8.871275901794434
            ],
            [
                "\u4e13\u5bb6",
                -8.509476661682129
            ],
            [
                "\u4f60\u4eec",
                -8.512838363647461
            ],
            [
                "\u2581Division",
                -8.878297805786133
            ],
            [
                "\u2581light",
                -8.853367805480957
            ],
            [
                "\u2581implementing",
                -8.887348175048828
            ],
            [
                "\u5b8c\u5168",
                -8.540489196777344
            ],
            [
                "\u2581section",
                -8.867280006408691
            ],
            [
                "\u2581::",
                -8.915834426879883
            ],
            [
                "\u2581list",
                -8.85964298248291
            ],
            [
                "\u2581laws",
                -8.924257278442383
            ],
            [
                "\u2581production",
                -8.892394065856934
            ],
            [
                "\u2581become",
                -8.86202621459961
            ],
            [
                "\u2581notes",
                -8.905829429626465
            ],
            [
                "\u2581\u6709",
                -8.813972473144531
            ],
            [
                "\u2581organized",
                -8.885244369506836
            ],
            [
                "\u2581objectives",
                -8.898344039916992
            ],
            [
                "\u4f0a\u62c9\u514b",
                -8.503122329711914
            ],
            [
                "\u2581property",
                -8.884288787841797
            ],
            [
                "\u6d88\u9664",
                -8.56122875213623
            ],
            [
                "\u2581dated",
                -8.878089904785156
            ],
            [
                "\u6b21",
                -8.475111961364746
            ],
            [
                "\u258113.",
                -9.020389556884766
            ],
            [
                "\u2581Tribunal",
                -8.872915267944336
            ],
            [
                "\u53d1",
                -8.622238159179688
            ],
            [
                "level",
                -8.884199142456055
            ],
            [
                "\u2581performance",
                -8.891701698303223
            ],
            [
                "\u2581home",
                -8.761722564697266
            ],
            [
                "\u4efb\u52a1",
                -8.485756874084473
            ],
            [
                "\u7ecf",
                -8.564214706420898
            ],
            [
                "\u2581awareness",
                -8.894349098205566
            ],
            [
                "\u2581aimed",
                -8.899788856506348
            ],
            [
                "T",
                -9.079699516296387
            ],
            [
                "\u8d38\u6613",
                -8.535015106201172
            ],
            [
                "\u7acb\u6cd5",
                -8.522010803222656
            ],
            [
                "\u2581rate",
                -8.884000778198242
            ],
            [
                "\u2581Minister",
                -8.843982696533203
            ],
            [
                "\u2581Where",
                -8.639753341674805
            ],
            [
                "\u2581date",
                -8.865906715393066
            ],
            [
                "\u2581steps",
                -8.88850212097168
            ],
            [
                "\u4f46\u662f",
                -8.547036170959473
            ],
            [
                "\u6253",
                -8.530380249023438
            ],
            [
                "\u2581position",
                -8.876294136047363
            ],
            [
                "\u8b66\u5bdf",
                -8.527616500854492
            ],
            [
                "\u201d,",
                -9.532079696655273
            ],
            [
                "\u6539\u8fdb",
                -8.55411434173584
            ],
            [
                "\u2581adequate",
                -8.912420272827148
            ],
            [
                "\u2581open",
                -8.867647171020508
            ],
            [
                "\u2581certain",
                -8.889805793762207
            ],
            [
                "\u8349\u6848",
                -8.548699378967285
            ],
            [
                "\u2581\u7531\u4e8e",
                -8.623764038085938
            ],
            [
                "\u2581pursuant",
                -8.899779319763184
            ],
            [
                "\u9002\u5f53",
                -8.466496467590332
            ],
            [
                "\u53d6\u5f97",
                -8.588129043579102
            ],
            [
                "\u2581Asia",
                -8.904998779296875
            ],
            [
                "to",
                -9.02170467376709
            ],
            [
                "\u2581facilitate",
                -8.908236503601074
            ],
            [
                "\u2581forms",
                -8.922364234924316
            ],
            [
                "\u2581believe",
                -8.792551040649414
            ],
            [
                "\u2581supported",
                -8.915824890136719
            ],
            [
                "\u63a7\u5236",
                -8.568974494934082
            ],
            [
                "\u2581previous",
                -8.89945125579834
            ],
            [
                "\u2581enhance",
                -8.903655052185059
            ],
            [
                "\u2581individual",
                -8.912846565246582
            ],
            [
                "\u2581living",
                -8.887149810791016
            ],
            [
                "\u2581Other",
                -8.880268096923828
            ],
            [
                "\u2581why",
                -8.786225318908691
            ],
            [
                "\u2581official",
                -8.899864196777344
            ],
            [
                "\u8bf7\u6c42",
                -8.561200141906738
            ],
            [
                "50",
                -8.777277946472168
            ],
            [
                "\u770b",
                -8.527559280395508
            ],
            [
                "\u52a0\u5165",
                -8.62109088897705
            ],
            [
                "\u2581An",
                -8.91696834564209
            ],
            [
                "\u2581Central",
                -8.894012451171875
            ],
            [
                "\u2581approved",
                -8.918747901916504
            ],
            [
                "\u25812010",
                -9.165892601013184
            ],
            [
                "\u2581free",
                -8.885478019714355
            ],
            [
                "\u5c65\u884c",
                -8.586995124816895
            ],
            [
                "G",
                -8.983942985534668
            ],
            [
                "\u2581communities",
                -8.920585632324219
            ],
            [
                "\u2581knowledge",
                -8.904722213745117
            ],
            [
                "\u2581author",
                -8.9053373336792
            ],
            [
                "\u2581God",
                -8.672138214111328
            ],
            [
                "\u258114.",
                -9.048135757446289
            ],
            [
                "\u2581joint",
                -8.92146110534668
            ],
            [
                "\u7684\u4e00\u4e2a",
                -8.67944622039795
            ],
            [
                "\u6ce8\u610f",
                -8.637411117553711
            ],
            [
                "l",
                -9.181473731994629
            ],
            [
                "\u5c3c",
                -8.725138664245605
            ],
            [
                "\u77e5\u9053",
                -8.509777069091797
            ],
            [
                "\u2581plans",
                -8.942827224731445
            ],
            [
                "\u2581school",
                -8.876856803894043
            ],
            [
                "\u2581posts",
                -8.94206714630127
            ],
            [
                "\u2581H",
                -9.275301933288574
            ],
            [
                "\u6536\u5165",
                -8.591787338256836
            ],
            [
                "\u2581investment",
                -8.920816421508789
            ],
            [
                "\u6211\u7684",
                -8.561049461364746
            ],
            [
                "\u9a6c",
                -8.669605255126953
            ],
            [
                "\u51b2\u7a81",
                -8.610356330871582
            ],
            [
                "\u2581form",
                -9.006229400634766
            ],
            [
                "\u2581early",
                -8.91962718963623
            ],
            [
                "\u2581energy",
                -8.934457778930664
            ],
            [
                "\u6062\u590d",
                -8.600137710571289
            ],
            [
                "M",
                -9.182208061218262
            ],
            [
                "\u9009\u62e9",
                -8.63344955444336
            ],
            [
                "\u258128",
                -8.852441787719727
            ],
            [
                "\u2581purpose",
                -8.924901962280273
            ],
            [
                "\u2581able",
                -8.922599792480469
            ],
            [
                "\u2581days",
                -8.89306354522705
            ],
            [
                "\u6269\u5927",
                -8.587903022766113
            ],
            [
                "tergovernmental",
                -8.969883918762207
            ],
            [
                "\u2581Criminal",
                -8.925859451293945
            ],
            [
                "\u2581strategic",
                -8.94421672821045
            ],
            [
                "\u2581proposals",
                -8.953065872192383
            ],
            [
                "\u2581d",
                -9.102927207946777
            ],
            [
                "\u2014\u2014",
                -8.603011131286621
            ],
            [
                "\u975e\u653f\u5e9c\u7ec4\u7ec7",
                -8.518260955810547
            ],
            [
                "\u2581interest",
                -8.925716400146484
            ],
            [
                "\u6210\u5458\u56fd",
                -8.611634254455566
            ],
            [
                "\u4e8b",
                -8.570646286010742
            ],
            [
                "\u4fdd\u969c",
                -8.624585151672363
            ],
            [
                "\u957f\u671f",
                -8.593070030212402
            ],
            [
                "\u2581assist",
                -8.931659698486328
            ],
            [
                "\u2581income",
                -8.930440902709961
            ],
            [
                "\u2581Charter",
                -8.962031364440918
            ],
            [
                "\u2581essential",
                -8.94052791595459
            ],
            [
                "\u2581understanding",
                -8.942509651184082
            ],
            [
                "\u2581greater",
                -8.938103675842285
            ],
            [
                "\u2581recommendation",
                -8.936811447143555
            ],
            [
                "\u2581Agenda",
                -8.943182945251465
            ],
            [
                "\u2581M",
                -9.25985050201416
            ],
            [
                "\u2581issued",
                -8.946120262145996
            ],
            [
                "\u8fdb\u884c\u4e86",
                -8.650166511535645
            ],
            [
                "\u2581\u5728\u8fd9\u65b9\u9762",
                -8.636113166809082
            ],
            [
                "\u6b22\u8fce",
                -8.56017780303955
            ],
            [
                "\u5f53\u5c40",
                -8.606444358825684
            ],
            [
                "\u2581L",
                -9.300520896911621
            ],
            [
                "\u2581self",
                -8.942861557006836
            ],
            [
                "\u6765\u81ea",
                -8.5706787109375
            ],
            [
                "\u65b9",
                -8.658565521240234
            ],
            [
                "\u2581Trade",
                -8.949472427368164
            ],
            [
                "\u2581communication",
                -8.942030906677246
            ],
            [
                "\u2581analysis",
                -8.948888778686523
            ],
            [
                "\u81ea\u7531",
                -8.58801555633545
            ],
            [
                "\u2581principle",
                -8.944478034973145
            ],
            [
                "\u52a0",
                -8.713253021240234
            ],
            [
                "\u5145\u5206",
                -8.567915916442871
            ],
            [
                "\u2581wish",
                -8.921553611755371
            ],
            [
                "\u6b63",
                -8.58261489868164
            ],
            [
                "te",
                -9.03641414642334
            ],
            [
                "\u300b(",
                -8.678815841674805
            ],
            [
                "\u2581implemented",
                -8.958417892456055
            ],
            [
                "\u2581age",
                -8.934247016906738
            ],
            [
                "\u9075\u5b88",
                -8.608686447143555
            ],
            [
                "\u91cd\u8981",
                -8.573553085327148
            ],
            [
                "\u2581ensuring",
                -8.953935623168945
            ],
            [
                "\u2581Plan",
                -8.946512222290039
            ],
            [
                "\u53d1\u5c55\u4e2d\u56fd\u5bb6",
                -8.54033088684082
            ],
            [
                "\u2581offices",
                -8.964449882507324
            ],
            [
                "\u53f8\u6cd5",
                -8.626200675964355
            ],
            [
                "\u2581arrangements",
                -8.966248512268066
            ],
            [
                "\u2581Review",
                -8.961982727050781
            ],
            [
                "\u2581Bank",
                -8.957945823669434
            ],
            [
                "\u2581carried",
                -8.968180656433105
            ],
            [
                "\u2581R",
                -9.127609252929688
            ],
            [
                "u",
                -9.36799144744873
            ],
            [
                "\u2581having",
                -8.932034492492676
            ],
            [
                "\u4e1a\u52a1",
                -8.606736183166504
            ],
            [
                "\u2581expected",
                -8.968944549560547
            ],
            [
                "\u53ea",
                -8.56071949005127
            ],
            [
                "\u2581experts",
                -8.971163749694824
            ],
            [
                "\u2581evaluation",
                -8.954418182373047
            ],
            [
                "\u2581equal",
                -8.96654224395752
            ],
            [
                "\u2581Implementation",
                -8.96340560913086
            ],
            [
                "\u2581Kingdom",
                -8.935436248779297
            ],
            [
                "\u4f86",
                -8.592994689941406
            ],
            [
                "\u62e5\u6709",
                -8.626590728759766
            ],
            [
                "\u5fc3",
                -8.681838035583496
            ],
            [
                "\u2581potential",
                -8.969751358032227
            ],
            [
                "\u2581undertaken",
                -8.971233367919922
            ],
            [
                "\u2581line",
                -8.935294151306152
            ],
            [
                "\u2581Russian",
                -8.917920112609863
            ],
            [
                "\u5021\u8bae",
                -8.633758544921875
            ],
            [
                "\u2581large",
                -8.970423698425293
            ],
            [
                "\u4e3e\u884c\u7684",
                -8.741312026977539
            ],
            [
                "\u6cd5\u5b98",
                -8.636017799377441
            ],
            [
                "\u4e00\u6837",
                -8.66901969909668
            ],
            [
                "\u2581foreign",
                -8.969809532165527
            ],
            [
                "\u8c08\u5224",
                -8.607051849365234
            ],
            [
                "\u751f",
                -8.714320182800293
            ],
            [
                "\u2581text",
                -8.958706855773926
            ],
            [
                "\u258115.",
                -9.129631996154785
            ],
            [
                "\u2581protect",
                -8.951014518737793
            ],
            [
                "\u8868",
                -8.633136749267578
            ],
            [
                "\u4fdd\u7559",
                -8.64003849029541
            ],
            [
                "\u2581His",
                -8.943674087524414
            ],
            [
                "\u2581stated",
                -8.995331764221191
            ],
            [
                "\u4e0b\u5217",
                -8.604043960571289
            ],
            [
                "\u5a01\u80c1",
                -8.656970024108887
            ],
            [
                "\u975e\u5e38",
                -8.612913131713867
            ],
            [
                "\u2581goals",
                -8.995429992675781
            ],
            [
                "\u2581Geneva",
                -8.98066234588623
            ],
            [
                "1998",
                -8.633978843688965
            ],
            [
                "\u2581contribute",
                -8.979957580566406
            ],
            [
                "\u2581prepared",
                -8.99372386932373
            ],
            [
                "\u2581affected",
                -8.991494178771973
            ],
            [
                "\u2581guidelines",
                -8.998639106750488
            ],
            [
                "\u2581Federation",
                -8.944437026977539
            ],
            [
                "\u2581basic",
                -8.988332748413086
            ],
            [
                "\u2581V",
                -9.21896743774414
            ],
            [
                "\u7684\u662f",
                -8.874584197998047
            ],
            [
                "\u7eb3\u5165",
                -8.660099983215332
            ],
            [
                "\u2581Summit",
                -9.004886627197266
            ],
            [
                "\u72af\u7f6a",
                -8.683025360107422
            ],
            [
                "\u2581opportunities",
                -8.995487213134766
            ],
            [
                "\u258127",
                -8.928746223449707
            ],
            [
                "\u2581until",
                -8.951452255249023
            ],
            [
                "\u793e\u533a",
                -8.636893272399902
            ],
            [
                "\u786e\u8ba4",
                -8.628376960754395
            ],
            [
                "\u6cd5\u5ead",
                -8.623401641845703
            ],
            [
                "\u2581study",
                -8.994742393493652
            ],
            [
                "\u2581Global",
                -8.988808631896973
            ],
            [
                "\u2581Dur",
                -8.995896339416504
            ],
            [
                "\u6700\u8fd1",
                -8.620573043823242
            ],
            [
                "\u7684\u65b9\u5f0f",
                -8.78162956237793
            ],
            [
                "\u2581York",
                -8.99344539642334
            ],
            [
                "\u2581fundamental",
                -9.010377883911133
            ],
            [
                "\u2581financing",
                -9.006908416748047
            ],
            [
                "\u7f3a\u4e4f",
                -8.668943405151367
            ],
            [
                "\u2581making",
                -8.985897064208984
            ],
            [
                "\u2581conduct",
                -8.99314022064209
            ],
            [
                "\u258126",
                -8.914566040039062
            ],
            [
                "\u53f7\u51b3\u5b9a",
                -8.665033340454102
            ],
            [
                "\u2581UN",
                -9.02244758605957
            ],
            [
                "\u2581months",
                -8.98848819732666
            ],
            [
                "\u2581Israeli",
                -8.992877006530762
            ],
            [
                "\u2581others",
                -9.088362693786621
            ],
            [
                "\u534f\u4f1a",
                -8.66695785522461
            ],
            [
                "\u7b26\u5408",
                -8.657797813415527
            ],
            [
                "\u534f\u8bae",
                -8.684022903442383
            ],
            [
                "\u2581proposal",
                -9.007183074951172
            ],
            [
                "\u2581informed",
                -9.001097679138184
            ],
            [
                "\u2581market",
                -8.997931480407715
            ],
            [
                "\u2581far",
                -8.969364166259766
            ],
            [
                "\u2581nature",
                -8.99911117553711
            ],
            [
                "\u2581facilities",
                -8.995526313781738
            ],
            [
                "\u5b58\u5728",
                -8.631847381591797
            ],
            [
                "\u2581aspects",
                -9.00183391571045
            ],
            [
                "\u5173\u7cfb",
                -8.673964500427246
            ],
            [
                "\u2581vote",
                -8.999959945678711
            ],
            [
                "\u2581today",
                -8.950915336608887
            ],
            [
                "\u2581fifty",
                -9.011374473571777
            ],
            [
                "\u2581processes",
                -9.017991065979004
            ],
            [
                "\u7684\u7b2c",
                -8.846426963806152
            ],
            [
                "\u2581Management",
                -8.997638702392578
            ],
            [
                "\u4e07\u7f8e\u5143",
                -8.670931816101074
            ],
            [
                "\u6703",
                -8.6661958694458
            ],
            [
                "\u6c11\u4e3b",
                -8.73805046081543
            ],
            [
                "\u2581building",
                -8.997895240783691
            ],
            [
                "\u2581delegations",
                -9.036221504211426
            ],
            [
                "\u2581rural",
                -9.0093994140625
            ],
            [
                "k",
                -9.396055221557617
            ],
            [
                "\u2581body",
                -8.991352081298828
            ],
            [
                "\u4e49\u52a1",
                -8.625250816345215
            ],
            [
                "\u4f01\u4e1a",
                -8.663286209106445
            ],
            [
                "\u7efc\u5408",
                -8.72119140625
            ],
            [
                "\u2581Justice",
                -9.017683029174805
            ],
            [
                "\u2581mechanism",
                -9.012125015258789
            ],
            [
                "\u2581bring",
                -8.965115547180176
            ],
            [
                "\u9898\u4e3a",
                -8.691253662109375
            ],
            [
                "\u2581exchange",
                -9.005329132080078
            ],
            [
                "\u2581Cooperation",
                -9.017533302307129
            ],
            [
                "\u2581money",
                -8.949119567871094
            ],
            [
                "\u8d23\u4efb",
                -8.603899002075195
            ],
            [
                "\u2581point",
                -8.982213020324707
            ],
            [
                "\u2581climate",
                -9.033257484436035
            ],
            [
                "\u9636\u6bb5",
                -8.695865631103516
            ],
            [
                "\u5ba3\u8a00",
                -8.74836254119873
            ],
            [
                "\u258116.",
                -9.165282249450684
            ],
            [
                "\u25811998",
                -9.263055801391602
            ],
            [
                "\u4e24\u4e2a",
                -8.655474662780762
            ],
            [
                "\u2581natural",
                -9.015954971313477
            ],
            [
                "en",
                -9.563068389892578
            ],
            [
                "\u7ed3\u679c",
                -8.630719184875488
            ],
            [
                "\u519b\u4e8b",
                -8.74285888671875
            ],
            [
                "\u2581Forum",
                -9.024898529052734
            ],
            [
                "\u2581independent",
                -9.032282829284668
            ],
            [
                "\u2581limited",
                -9.036293029785156
            ],
            [
                "\u2581individuals",
                -9.041460990905762
            ],
            [
                "\u5c40",
                -8.738160133361816
            ],
            [
                "\u2581war",
                -8.987896919250488
            ],
            [
                "\u2581manner",
                -9.027158737182617
            ],
            [
                "\u4e8b\u52a1",
                -8.801305770874023
            ],
            [
                "\u2581quality",
                -9.035290718078613
            ],
            [
                "\u6848\u4ef6",
                -8.660687446594238
            ],
            [
                "\u2581six",
                -9.011124610900879
            ],
            [
                "\u884c",
                -8.690279006958008
            ],
            [
                "\u2581whole",
                -8.989437103271484
            ],
            [
                ".2",
                -9.205695152282715
            ],
            [
                "AC",
                -9.463677406311035
            ],
            [
                "\u5730\u65b9",
                -8.62788200378418
            ],
            [
                "\u2581recommends",
                -9.047286987304688
            ],
            [
                "\u2581\u4e00",
                -8.830031394958496
            ],
            [
                "\u5176\u4e2d\u5305\u62ec",
                -8.70276927947998
            ],
            [
                "\u2581evidence",
                -9.028157234191895
            ],
            [
                "\u8282",
                -8.715792655944824
            ],
            [
                "\u6761\u7b2c",
                -8.709442138671875
            ],
            [
                "\u2581leave",
                -8.946537017822266
            ],
            [
                "\u5185\u5bb9",
                -8.69749641418457
            ],
            [
                "\u4f9b",
                -8.714152336120605
            ],
            [
                "\u4e00\u79cd",
                -8.668267250061035
            ],
            [
                "\u2581Meeting",
                -9.029383659362793
            ],
            [
                "\u2581commitments",
                -9.053536415100098
            ],
            [
                "AIDS",
                -9.026864051818848
            ],
            [
                "\u2581currently",
                -9.041053771972656
            ],
            [
                "\u2581opportunity",
                -9.049823760986328
            ],
            [
                "\u2581\u8fd9\u662f",
                -8.74764347076416
            ],
            [
                "\u7ed9\u4e88",
                -8.718231201171875
            ],
            [
                "\u72b6\u51b5",
                -8.679636001586914
            ],
            [
                "\u2581thus",
                -9.046343803405762
            ],
            [
                "\u6210",
                -8.771854400634766
            ],
            [
                "\u2581negotiations",
                -9.052075386047363
            ],
            [
                "\u2581T",
                -9.27147388458252
            ],
            [
                "\u2581always",
                -8.956806182861328
            ],
            [
                "\u2581Now",
                -8.901193618774414
            ],
            [
                "\u8fbe",
                -8.76026439666748
            ],
            [
                "\u2581authority",
                -9.050261497497559
            ],
            [
                "\u2581\u662f\u7684",
                -8.727378845214844
            ],
            [
                "\u2581often",
                -9.043231010437012
            ],
            [
                "\u4ece\u800c",
                -8.708902359008789
            ],
            [
                "\u8aaa",
                -8.67525863647461
            ],
            [
                "\u5ba3\u5e03",
                -8.728300094604492
            ],
            [
                "\u2581love",
                -8.889809608459473
            ],
            [
                "\u66f4\u52a0",
                -8.721646308898926
            ],
            [
                "\u2581labour",
                -9.070401191711426
            ],
            [
                "\u2581When",
                -8.968245506286621
            ],
            [
                "\u827e\u6ecb\u75c5",
                -8.725485801696777
            ],
            [
                "\u91cd\u65b0",
                -8.725166320800781
            ],
            [
                "\u673a\u4f1a",
                -8.67838191986084
            ],
            [
                "\u843d\u5b9e",
                -8.705111503601074
            ],
            [
                "K",
                -9.266257286071777
            ],
            [
                "\u4e00\u76f4",
                -8.70653247833252
            ],
            [
                "\u9002\u7528",
                -8.712495803833008
            ],
            [
                "\u79ef\u6781",
                -8.74653434753418
            ],
            [
                "\u2581questions",
                -9.058164596557617
            ],
            [
                "\u2581workers",
                -9.056647300720215
            ],
            [
                "\u2581play",
                -8.995698928833008
            ],
            [
                "\u5e76\u5728",
                -8.835990905761719
            ],
            [
                "\u2581Support",
                -9.05416202545166
            ],
            [
                "\u7684\u4efb\u4f55",
                -8.8594388961792
            ],
            [
                "\u2581increasing",
                -9.073362350463867
            ],
            [
                "\u2581act",
                -9.040234565734863
            ],
            [
                "\u2581Non",
                -9.05825138092041
            ],
            [
                "\u5404\u9879",
                -8.64031982421875
            ],
            [
                "\u2581benefits",
                -9.06723690032959
            ],
            [
                "\u547c\u5401",
                -8.686992645263672
            ],
            [
                "\u2581effect",
                -9.054502487182617
            ],
            [
                "\u91cd\u7533",
                -8.68509292602539
            ],
            [
                "\u2581recognized",
                -9.07507038116455
            ],
            [
                "H",
                -9.31222915649414
            ],
            [
                "\u6b7b",
                -8.713499069213867
            ],
            [
                "\u7f14\u7ea6\u65b9",
                -8.65572738647461
            ],
            [
                "\u258129",
                -8.986098289489746
            ],
            [
                "\u5b9e\u884c",
                -8.728672981262207
            ],
            [
                "\u90e8\u961f",
                -8.724615097045898
            ],
            [
                "\u5b9e\u9645",
                -8.72538948059082
            ],
            [
                "\u2581contribution",
                -9.069000244140625
            ],
            [
                "\u6050\u6016\u4e3b\u4e49",
                -8.74501895904541
            ],
            [
                "\u2581\u8be5",
                -8.777496337890625
            ],
            [
                "\u6587\u5316",
                -8.669795989990234
            ],
            [
                "\u5934",
                -8.783194541931152
            ],
            [
                "\u975e\u6cd5",
                -8.748137474060059
            ],
            [
                "\u2581concerns",
                -9.087560653686523
            ],
            [
                "\u67d0\u4e9b",
                -8.685384750366211
            ],
            [
                "\u2581transfer",
                -9.068416595458984
            ],
            [
                "\u8fdd\u53cd",
                -8.749114990234375
            ],
            [
                "\u901a\u77e5",
                -8.74112606048584
            ],
            [
                "\u2581officials",
                -9.09717082977295
            ],
            [
                "\u5bfc\u81f4",
                -8.740640640258789
            ],
            [
                "\u2581functions",
                -9.081389427185059
            ],
            [
                "\u2581Congo",
                -9.013608932495117
            ],
            [
                "\u5df4",
                -8.852168083190918
            ],
            [
                "\u2581\u4e3a\u4e86",
                -8.773431777954102
            ],
            [
                "\u2581\u597d",
                -8.810888290405273
            ],
            [
                "\u2581Is",
                -9.429207801818848
            ],
            [
                "\u2581alia",
                -9.084434509277344
            ],
            [
                "\u2581referred",
                -9.088438987731934
            ],
            [
                "\u2581entities",
                -9.083773612976074
            ],
            [
                "\u2581submit",
                -9.063314437866211
            ],
            [
                "\u2581forward",
                -9.067153930664062
            ],
            [
                "\u258117.",
                -9.20839786529541
            ],
            [
                "\u6216\u8005",
                -8.723834991455078
            ],
            [
                "\u5f00",
                -8.76504898071289
            ],
            [
                "\u2581name",
                -8.904374122619629
            ],
            [
                "\u2581Crime",
                -9.070574760437012
            ],
            [
                "\u7279\u522b\u62a5\u544a\u5458",
                -8.714334487915039
            ],
            [
                "\u2581remain",
                -9.0698823928833
            ],
            [
                "\u2581Under",
                -9.082798957824707
            ],
            [
                "\u751f\u4ea7",
                -8.729987144470215
            ],
            [
                "\u2581close",
                -9.051933288574219
            ],
            [
                "\u2581thing",
                -8.920245170593262
            ],
            [
                "\u8fbe\u5230",
                -8.778888702392578
            ],
            [
                "\u57ce\u5e02",
                -8.748030662536621
            ],
            [
                "\u2581away",
                -8.95530891418457
            ],
            [
                "\u65e8\u5728",
                -8.740861892700195
            ],
            [
                "2011",
                -8.738302230834961
            ],
            [
                "\u2581young",
                -9.05413818359375
            ],
            [
                "\u4e07",
                -8.788015365600586
            ],
            [
                "\u2581letter",
                -9.057451248168945
            ],
            [
                "\u2581Agreement",
                -9.089728355407715
            ],
            [
                "an",
                -9.625361442565918
            ],
            [
                "\u2581crimes",
                -9.102886199951172
            ],
            [
                "\u2581below",
                -9.07646656036377
            ],
            [
                "\u2581III",
                -9.064697265625
            ],
            [
                "\u2581crisis",
                -9.084954261779785
            ],
            [
                "\u6570",
                -8.762873649597168
            ],
            [
                "\u2581articles",
                -9.133965492248535
            ],
            [
                "\u529e\u4e8b\u5904",
                -8.81985092163086
            ],
            [
                "\u2581outcome",
                -9.088533401489258
            ],
            [
                "\u2581People",
                -8.998255729675293
            ],
            [
                "\u5e02\u573a",
                -8.764205932617188
            ],
            [
                "\u2581\u4ece",
                -9.019848823547363
            ],
            [
                "\u2581Al",
                -9.245773315429688
            ],
            [
                "\u5173\u6ce8",
                -8.742705345153809
            ],
            [
                "\u2581Code",
                -9.090570449829102
            ],
            [
                "\u258118.",
                -9.244765281677246
            ],
            [
                "\u2581freedom",
                -9.073860168457031
            ],
            [
                "\u5982\u4e0b",
                -8.760122299194336
            ],
            [
                "\u2581presented",
                -9.102420806884766
            ],
            [
                "\u8fdb\u5165",
                -8.762906074523926
            ],
            [
                "\u2581multilateral",
                -9.089375495910645
            ],
            [
                "V",
                -9.613096237182617
            ],
            [
                "\u2581connection",
                -9.093507766723633
            ],
            [
                "\u2581cannot",
                -9.06322956085205
            ],
            [
                "\u8fd9\u662f",
                -8.747869491577148
            ],
            [
                "\u2581remains",
                -9.108202934265137
            ],
            [
                "60",
                -8.983266830444336
            ],
            [
                "\u5e94\u5bf9",
                -8.816690444946289
            ],
            [
                "\u2581integrated",
                -9.101356506347656
            ],
            [
                "\u884c\u52a8\u8ba1\u5212",
                -8.773508071899414
            ],
            [
                "the",
                -9.111421585083008
            ],
            [
                "\u2581\u4e3b\u5e2d",
                -8.84573745727539
            ],
            [
                "\u2581refugees",
                -9.11473560333252
            ],
            [
                "\u8bc4\u4ef7",
                -8.728270530700684
            ],
            [
                "\u2581\u901a\u8fc7",
                -9.024730682373047
            ],
            [
                "\u2581Sudan",
                -9.039986610412598
            ],
            [
                "\u51fa\u73b0",
                -8.76706314086914
            ],
            [
                "\u4eab\u6709",
                -8.793561935424805
            ],
            [
                "\u2581UNCTAD",
                -9.10394287109375
            ],
            [
                "\u2581Some",
                -9.074432373046875
            ],
            [
                "\u2581value",
                -9.076924324035645
            ],
            [
                "\u2581claims",
                -9.114012718200684
            ],
            [
                "\u2581overall",
                -9.115248680114746
            ],
            [
                "\u671f",
                -8.795830726623535
            ],
            [
                "\u91cd",
                -8.868717193603516
            ],
            [
                "\u2581experience",
                -9.091850280761719
            ],
            [
                "\u2581media",
                -9.086885452270508
            ],
            [
                "\u516c\u6c11",
                -8.753758430480957
            ],
            [
                "\u2581informal",
                -9.1255464553833
            ],
            [
                "\u529b",
                -8.874162673950195
            ],
            [
                "\u2581communications",
                -9.119497299194336
            ],
            [
                "\u5371\u673a",
                -8.791776657104492
            ],
            [
                "\u8fd8\u662f",
                -8.767938613891602
            ],
            [
                "\u2581identified",
                -9.103811264038086
            ],
            [
                "\u4fdd\u6301",
                -8.771621704101562
            ],
            [
                "\u2581Annex",
                -8.95656681060791
            ],
            [
                "\u6210\u679c",
                -8.780915260314941
            ],
            [
                "\u2581provisional",
                -9.112571716308594
            ],
            [
                "\u5458\u989d",
                -8.76253890991211
            ],
            [
                "\u25812011",
                -9.413487434387207
            ],
            [
                "\u2581Please",
                -8.975860595703125
            ],
            [
                "\u2581K",
                -9.576005935668945
            ],
            [
                "\u2581Are",
                -8.935297966003418
            ],
            [
                "\u2581conducted",
                -9.125202178955078
            ],
            [
                "\u2581court",
                -9.095881462097168
            ],
            [
                "\u662f\u4e00\u4e2a",
                -8.843029022216797
            ],
            [
                "\u7684\u4e3b\u8981",
                -8.865645408630371
            ],
            [
                "\u624d",
                -8.751923561096191
            ],
            [
                "\u96be\u6c11",
                -8.791731834411621
            ],
            [
                "\u534f\u5546",
                -8.796184539794922
            ],
            [
                "45",
                -9.104270935058594
            ],
            [
                "\u2581exercise",
                -9.122302055358887
            ],
            [
                "\u2581reference",
                -9.117990493774414
            ],
            [
                "\u4e0d\u4f1a",
                -8.760953903198242
            ],
            [
                "\u5168\u56fd",
                -8.763368606567383
            ],
            [
                "\u8bae\u5b9a\u4e66",
                -8.823486328125
            ],
            [
                "\u9884\u9632",
                -8.772366523742676
            ],
            [
                "\u4e00\u6b21",
                -8.781930923461914
            ],
            [
                "\u5f53",
                -8.819586753845215
            ],
            [
                "related",
                -9.110713005065918
            ],
            [
                "\u7ed3\u675f",
                -8.781288146972656
            ],
            [
                "\u2581purposes",
                -9.141138076782227
            ],
            [
                "\u2581sessions",
                -9.200769424438477
            ],
            [
                "\u4e25\u91cd",
                -8.744183540344238
            ],
            [
                "\u4e00\u8d77",
                -8.772564888000488
            ],
            [
                "\u7684\u52aa\u529b",
                -8.87807846069336
            ],
            [
                "\u827e\u6ecb\u75c5\u6bd2",
                -8.786602020263672
            ],
            [
                "\u5c3d\u7ba1",
                -8.760188102722168
            ],
            [
                "\u201d.",
                -9.246397018432617
            ],
            [
                "\u2581Just",
                -8.933420181274414
            ],
            [
                "\u2581Unit",
                -9.12090015411377
            ],
            [
                "\u5de5\u5177",
                -8.780617713928223
            ],
            [
                "\u2581items",
                -9.142247200012207
            ],
            [
                "\u2581real",
                -9.065417289733887
            ],
            [
                "\u4ecb\u7ecd",
                -8.785390853881836
            ],
            [
                "\u2581preparation",
                -9.130046844482422
            ],
            [
                "\u2581participate",
                -9.122001647949219
            ],
            [
                "\u2581infrastructure",
                -9.125091552734375
            ],
            [
                "\u610f\u89c1",
                -8.772541046142578
            ],
            [
                "\u6761\u6b3e",
                -8.779953956604004
            ],
            [
                "\u2581Regional",
                -9.145127296447754
            ],
            [
                "\u2581paragraphs",
                -9.176772117614746
            ],
            [
                "\u2581changes",
                -9.153288841247559
            ],
            [
                "\u2581pay",
                -9.098444938659668
            ],
            [
                "\u4ece\u4e8b",
                -8.818199157714844
            ],
            [
                "\u5360",
                -8.819123268127441
            ],
            [
                "\u2581conference",
                -9.13833999633789
            ],
            [
                "\u8bc1\u660e",
                -8.796491622924805
            ],
            [
                "st",
                -9.504477500915527
            ],
            [
                "\u2581territory",
                -9.149084091186523
            ],
            [
                "\u7684\u91cd\u8981\u6027",
                -8.827489852905273
            ],
            [
                "\u90fd\u662f",
                -8.819669723510742
            ],
            [
                "\u2581death",
                -9.093478202819824
            ],
            [
                "\u6587",
                -8.918903350830078
            ],
            [
                "\u8be5\u56fd",
                -8.76220417022705
            ],
            [
                "\u258119.",
                -9.290725708007812
            ],
            [
                "\u800c\u8a00",
                -8.847341537475586
            ],
            [
                "\u2581\u867d\u7136",
                -8.851170539855957
            ],
            [
                "\u660e\u786e",
                -8.79675579071045
            ],
            [
                "\u6311\u6218",
                -8.77389144897461
            ],
            [
                "\u2581final",
                -9.13778018951416
            ],
            [
                "\u4ea7\u751f",
                -8.799583435058594
            ],
            [
                "\u2581substantive",
                -9.159506797790527
            ],
            [
                "\u6253\u51fb",
                -8.828036308288574
            ],
            [
                "2012",
                -8.787070274353027
            ],
            [
                "\u5e74\u5ea6",
                -8.806130409240723
            ],
            [
                "\u2581drug",
                -9.131414413452148
            ],
            [
                "\u624b\u6bb5",
                -8.830551147460938
            ],
            [
                "\u2581former",
                -9.102493286132812
            ],
            [
                "\u2581enforcement",
                -9.151333808898926
            ],
            [
                "\u2581governance",
                -9.14555835723877
            ],
            [
                "\u8bb0\u5f55",
                -8.83588695526123
            ],
            [
                "\u2581Europe",
                -9.162431716918945
            ],
            [
                "\u2581\u5c3d\u7ba1",
                -8.870209693908691
            ],
            [
                "\u2581compliance",
                -9.16200065612793
            ],
            [
                "\u56db",
                -8.792201042175293
            ],
            [
                "\u6b64\u7c7b",
                -8.82426929473877
            ],
            [
                "\u751f\u6d3b",
                -8.829398155212402
            ],
            [
                "\u2581officers",
                -9.152849197387695
            ],
            [
                "\u2581power",
                -9.119596481323242
            ],
            [
                "\u5c31\u4e1a",
                -8.798722267150879
            ],
            [
                "\u6b66\u5668",
                -8.836066246032715
            ],
            [
                "\u72ec\u7acb",
                -8.812453269958496
            ],
            [
                "\u4e5f\u662f",
                -8.872371673583984
            ],
            [
                "\u505a\u6cd5",
                -8.75345516204834
            ],
            [
                ".\"",
                -8.999848365783691
            ],
            [
                "\u51c6\u5219",
                -8.786952018737793
            ],
            [
                "\u2581few",
                -9.115114212036133
            ],
            [
                "\u51c6\u5907",
                -8.856657981872559
            ],
            [
                "\u2581views",
                -9.19627857208252
            ],
            [
                "\u2581mind",
                -9.081924438476562
            ],
            [
                "\u2581institutional",
                -9.16405200958252
            ],
            [
                "\u4e24",
                -8.7898588180542
            ],
            [
                "\u5f53\u5730",
                -8.82005500793457
            ],
            [
                "\u2581primary",
                -9.166810035705566
            ],
            [
                "\u7eb3",
                -8.961104393005371
            ],
            [
                "\u7684\u6cd5\u5f8b",
                -8.920594215393066
            ],
            [
                "\u2581ongoing",
                -9.172355651855469
            ],
            [
                "\u8054\u76df",
                -8.973577499389648
            ],
            [
                "\u5f00\u53d1",
                -8.85935115814209
            ],
            [
                "\u5c06\u5728",
                -8.915983200073242
            ],
            [
                "\u2581Protection",
                -9.156164169311523
            ],
            [
                "\u2581achieved",
                -9.18617057800293
            ],
            [
                "\u2581N",
                -9.64132308959961
            ],
            [
                "\u4e2d\u56fd",
                -8.75188159942627
            ],
            [
                "\u7684\u76ee\u6807",
                -8.891973495483398
            ],
            [
                "\u8bae\u4f1a",
                -8.847146034240723
            ],
            [
                "\u2581Section",
                -9.157696723937988
            ],
            [
                "\u2581return",
                -9.159286499023438
            ],
            [
                "\u56fd\u5185",
                -8.798337936401367
            ],
            [
                "\u652f\u4ed8",
                -8.840433120727539
            ],
            [
                "\u2581UNICEF",
                -9.181888580322266
            ],
            [
                "\u2581okay",
                -8.997886657714844
            ],
            [
                "\u4ee5\u6765",
                -8.827707290649414
            ],
            [
                "\u9700\u6c42",
                -8.828606605529785
            ],
            [
                "\u2581\u5927\u4f1a",
                -8.981724739074707
            ],
            [
                "\u2581Health",
                -9.150654792785645
            ],
            [
                "\u2581direct",
                -9.189109802246094
            ],
            [
                "\u5141\u8bb8",
                -8.839970588684082
            ],
            [
                "\u2581Public",
                -9.175870895385742
            ],
            [
                "\u2581internal",
                -9.185761451721191
            ],
            [
                "\u2581resource",
                -9.172734260559082
            ],
            [
                "\u2581safety",
                -9.171541213989258
            ],
            [
                "\u4e88\u4ee5",
                -8.854528427124023
            ],
            [
                "\u2581Institute",
                -9.170310020446777
            ],
            [
                "\u7684\u884c\u4e3a",
                -8.928694725036621
            ],
            [
                "\u2581state",
                -9.149622917175293
            ],
            [
                "\u2581enable",
                -9.173956871032715
            ],
            [
                "\u91c7\u53d6\u884c\u52a8",
                -8.853460311889648
            ],
            [
                "\u2581O",
                -9.447713851928711
            ],
            [
                "\u603b\u7edf",
                -8.840280532836914
            ],
            [
                "\u7ef4\u6301",
                -8.82661247253418
            ],
            [
                "\u804c\u80fd",
                -8.820088386535645
            ],
            [
                "\u2581Japan",
                -9.108611106872559
            ],
            [
                "\u5747",
                -8.839104652404785
            ],
            [
                "\u2581Recalling",
                -9.1947603225708
            ],
            [
                "\u2581Not",
                -9.047051429748535
            ],
            [
                "\u2581judicial",
                -9.194578170776367
            ],
            [
                "\u2581proceedings",
                -9.205626487731934
            ],
            [
                "\u6539\u53d8",
                -8.854972839355469
            ],
            [
                "\u2581detention",
                -9.171792984008789
            ],
            [
                "\u2581indicated",
                -9.195304870605469
            ],
            [
                "\u2581effectively",
                -9.197498321533203
            ],
            [
                "year",
                -9.17913818359375
            ],
            [
                "\u2581See",
                -9.121703147888184
            ],
            [
                "\u258120.",
                -9.313835144042969
            ],
            [
                "\u683c",
                -8.927553176879883
            ],
            [
                "\u73b0\u6709",
                -8.765351295471191
            ],
            [
                "\u258150",
                -9.294111251831055
            ],
            [
                "\u2581integration",
                -9.193724632263184
            ],
            [
                "35",
                -9.183158874511719
            ],
            [
                "\u2581medical",
                -9.181917190551758
            ],
            [
                "\u4ecd",
                -8.834568977355957
            ],
            [
                "\u2581low",
                -9.184639930725098
            ],
            [
                "\u2581combat",
                -9.190420150756836
            ],
            [
                "\u2581less",
                -9.182160377502441
            ],
            [
                "\u2581expert",
                -9.187621116638184
            ],
            [
                "\u2581keep",
                -9.078465461730957
            ],
            [
                "\u2581positive",
                -9.203335762023926
            ],
            [
                "org",
                -9.599074363708496
            ],
            [
                "\u25812012",
                -9.487448692321777
            ],
            [
                "\u5185\u90e8",
                -8.86876392364502
            ],
            [
                "\u2581regions",
                -9.22115707397461
            ],
            [
                "\u9644\u4ef6",
                -8.815089225769043
            ],
            [
                "\u6b63\u5f0f",
                -8.834192276000977
            ],
            [
                "\u2581Agency",
                -9.203974723815918
            ],
            [
                "\u5c0a\u91cd",
                -8.823376655578613
            ],
            [
                "\u52a0\u4ee5",
                -8.87912368774414
            ],
            [
                "\u2581situations",
                -9.253188133239746
            ],
            [
                "\u53ea\u6709",
                -8.823673248291016
            ],
            [
                "\u8303\u56f4",
                -8.86570930480957
            ],
            [
                "\u2581reduce",
                -9.200380325317383
            ],
            [
                "\u62df\u8ba2",
                -8.872879028320312
            ],
            [
                "\u8054\u7cfb",
                -8.843367576599121
            ],
            [
                "\u2581objective",
                -9.206377983093262
            ],
            [
                "\u2581lead",
                -9.177430152893066
            ],
            [
                "\u65e5\u672c",
                -8.834157943725586
            ],
            [
                "\u4e3a\u4e86",
                -8.876189231872559
            ],
            [
                "\u4ebf\u7f8e\u5143",
                -8.893588066101074
            ],
            [
                "\u4e8b\u4ef6",
                -8.84537124633789
            ],
            [
                "\u2581things",
                -9.089978218078613
            ],
            [
                "\u5927\u5b66",
                -8.894564628601074
            ],
            [
                "\u2581Political",
                -9.209508895874023
            ],
            [
                "\u52a0\u62ff\u5927",
                -8.816734313964844
            ],
            [
                "\u7684\u4f5c\u7528",
                -8.906599998474121
            ],
            [
                "\u2581met",
                -9.241660118103027
            ],
            [
                "\u81ea\u5df1\u7684",
                -8.960738182067871
            ],
            [
                "\u6b21\u4f1a\u8bae",
                -8.890399932861328
            ],
            [
                "\u91cf",
                -8.913190841674805
            ],
            [
                "\u2581share",
                -9.188556671142578
            ],
            [
                "\u2581Afghanistan",
                -9.15083122253418
            ],
            [
                "\u66fe",
                -8.880596160888672
            ],
            [
                "\u8fd9\u6837",
                -8.77376651763916
            ],
            [
                "\u2581kind",
                -9.115242004394531
            ],
            [
                "\u7ba1\u5236",
                -8.949027061462402
            ],
            [
                "\u6cd5\u56fd",
                -8.815604209899902
            ],
            [
                "\u8f66",
                -8.937557220458984
            ],
            [
                "\u2581Since",
                -9.214330673217773
            ],
            [
                "\u258121.",
                -9.366937637329102
            ],
            [
                "p",
                -9.64849853515625
            ],
            [
                "\u6b8b\u75be\u4eba",
                -8.92709732055664
            ],
            [
                "\u957f",
                -8.893940925598145
            ],
            [
                "\u53d1\u73b0",
                -8.860355377197266
            ],
            [
                "\u8fdb\u5c55",
                -8.909967422485352
            ],
            [
                ".6",
                -9.765726089477539
            ],
            [
                "\u2581circumstances",
                -9.24551773071289
            ],
            [
[...]
